{
    "<unk>": 0,
    "<s>": 1,
    "</s>": 2,
    "<SEP>": 3,
    "<CLS>": 4,
    "\n": 5,
    "\t": 6,
    "<img>": 7,
    "<img/>": 8,
    "</img>": 9,
    "<h2>": 10,
    "<h2/>": 11,
    "</h2>": 12,
    "<td>": 13,
    "<td/>": 14,
    "</td>": 15,
    "<strong>": 16,
    "<strong/>": 17,
    "</strong>": 18,
    "<table>": 19,
    "<table/>": 20,
    "</table>": 21,
    "<tr>": 22,
    "<tr/>": 23,
    "</tr>": 24,
    "<li>": 25,
    "<li/>": 26,
    "</li>": 27,
    "<b>": 28,
    "<b/>": 29,
    "</b>": 30,
    "<h3>": 31,
    "<h3/>": 32,
    "</h3>": 33,
    "<br>": 34,
    "<br/>": 35,
    "</br>": 36,
    "<h4>": 37,
    "<h4/>": 38,
    "</h4>": 39,
    "<h5>": 40,
    "<h5/>": 41,
    "</h5>": 42,
    "<p>": 43,
    "<p/>": 44,
    "</p>": 45,
    "<h1>": 46,
    "<h1/>": 47,
    "</h1>": 48,
    "<tbody>": 49,
    "<tbody/>": 50,
    "</tbody>": 51,
    "０": 52,
    "１": 53,
    "２": 54,
    "３": 55,
    "４": 56,
    "５": 57,
    "６": 58,
    "７": 59,
    "８": 60,
    "９": 61,
    "+": 62,
    "-": 63,
    "=": 64,
    "，": 65,
    "。": 66,
    "！": 67,
    "？": 68,
    "、": 69,
    "：": 70,
    "￥": 71,
    ".": 72,
    "!": 73,
    "?": 74,
    "...": 75,
    "。。。": 76,
    "。。。。。。": 77,
    "《": 78,
    "》": 79,
    "【": 80,
    "】": 81,
    "『": 82,
    "』": 83,
    "```": 84,
    "<!--": 85,
    "-->": 86,
    "---": 87,
    "<!DOCTYPE>": 88,
    "；": 89,
    "．": 90,
    "＝": 91,
    "＜": 92,
    "＞": 93,
    "－": 94,
    "＋": 95,
    "％": 96,
    "‼": 97,
    "㊣": 98,
    "／": 99,
    "｜": 100,
    "<reserved_12>": 101,
    "<reserved_13>": 102,
    "<reserved_14>": 103,
    "<reserved_15>": 104,
    "<reserved_16>": 105,
    "<reserved_17>": 106,
    "<reserved_18>": 107,
    "<reserved_19>": 108,
    "<reserved_20>": 109,
    "<reserved_21>": 110,
    "<reserved_22>": 111,
    "<reserved_23>": 112,
    "<reserved_24>": 113,
    "<reserved_25>": 114,
    "<reserved_26>": 115,
    "<reserved_27>": 116,
    "<reserved_28>": 117,
    "<reserved_29>": 118,
    "<reserved_30>": 119,
    "<reserved_31>": 120,
    "<reserved_32>": 121,
    "<reserved_33>": 122,
    "<reserved_34>": 123,
    "<reserved_35>": 124,
    "<reserved_36>": 125,
    "<reserved_37>": 126,
    "<reserved_38>": 127,
    "<reserved_39>": 128,
    "<reserved_40>": 129,
    "<reserved_41>": 130,
    "<reserved_42>": 131,
    "<reserved_43>": 132,
    "<reserved_44>": 133,
    "<reserved_45>": 134,
    "<reserved_46>": 135,
    "<reserved_47>": 136,
    "<reserved_48>": 137,
    "<reserved_49>": 138,
    "<reserved_50>": 139,
    "<reserved_51>": 140,
    "<reserved_52>": 141,
    "<reserved_53>": 142,
    "<reserved_54>": 143,
    "<reserved_55>": 144,
    "<reserved_56>": 145,
    "<reserved_57>": 146,
    "<reserved_58>": 147,
    "<reserved_59>": 148,
    "<reserved_60>": 149,
    "<reserved_61>": 150,
    "<reserved_62>": 151,
    "<reserved_63>": 152,
    "<reserved_64>": 153,
    "<reserved_65>": 154,
    "<reserved_66>": 155,
    "<reserved_67>": 156,
    "<reserved_68>": 157,
    "<reserved_69>": 158,
    "<reserved_70>": 159,
    "<reserved_71>": 160,
    "<reserved_72>": 161,
    "<reserved_73>": 162,
    "<reserved_74>": 163,
    "<reserved_75>": 164,
    "<reserved_76>": 165,
    "<reserved_77>": 166,
    "<reserved_78>": 167,
    "<reserved_79>": 168,
    "<reserved_80>": 169,
    "<reserved_81>": 170,
    "<reserved_82>": 171,
    "<reserved_83>": 172,
    "<reserved_84>": 173,
    "<reserved_85>": 174,
    "<reserved_86>": 175,
    "<reserved_87>": 176,
    "<reserved_88>": 177,
    "<reserved_89>": 178,
    "<reserved_90>": 179,
    "<reserved_91>": 180,
    "<reserved_92>": 181,
    "<reserved_93>": 182,
    "<reserved_94>": 183,
    "<reserved_95>": 184,
    "<reserved_96>": 185,
    "<reserved_97>": 186,
    "<reserved_98>": 187,
    "<reserved_99>": 188,
    "<reserved_100>": 189,
    "<reserved_101>": 190,
    "<reserved_102>": 191,
    "<reserved_103>": 192,
    "<reserved_104>": 193,
    "<reserved_105>": 194,
    "<reserved_106>": 195,
    "<reserved_107>": 196,
    "<reserved_108>": 197,
    "<reserved_109>": 198,
    "<reserved_110>": 199,
    "<reserved_111>": 200,
    "<reserved_112>": 201,
    "<reserved_113>": 202,
    "<reserved_114>": 203,
    "<reserved_115>": 204,
    "<reserved_116>": 205,
    "<reserved_117>": 206,
    "<reserved_118>": 207,
    "<reserved_119>": 208,
    "<reserved_120>": 209,
    "<reserved_121>": 210,
    "<reserved_122>": 211,
    "<reserved_123>": 212,
    "<reserved_124>": 213,
    "<reserved_125>": 214,
    "<reserved_126>": 215,
    "<reserved_127>": 216,
    "<reserved_128>": 217,
    "<reserved_129>": 218,
    "<reserved_130>": 219,
    "<reserved_131>": 220,
    "<reserved_132>": 221,
    "<reserved_133>": 222,
    "<reserved_134>": 223,
    "<reserved_135>": 224,
    "<reserved_136>": 225,
    "<reserved_137>": 226,
    "<reserved_138>": 227,
    "<reserved_139>": 228,
    "<reserved_140>": 229,
    "<reserved_141>": 230,
    "<reserved_142>": 231,
    "<reserved_143>": 232,
    "<reserved_144>": 233,
    "<reserved_145>": 234,
    "<reserved_146>": 235,
    "<reserved_147>": 236,
    "<reserved_148>": 237,
    "<reserved_149>": 238,
    "<reserved_150>": 239,
    "<reserved_151>": 240,
    "<reserved_152>": 241,
    "<reserved_153>": 242,
    "<reserved_154>": 243,
    "<reserved_155>": 244,
    "<reserved_156>": 245,
    "<reserved_157>": 246,
    "<reserved_158>": 247,
    "<reserved_159>": 248,
    "<reserved_160>": 249,
    "<reserved_161>": 250,
    "<reserved_162>": 251,
    "<reserved_163>": 252,
    "<reserved_164>": 253,
    "<reserved_165>": 254,
    "<reserved_166>": 255,
    "<reserved_167>": 256,
    "<reserved_168>": 257,
    "<reserved_169>": 258,
    "<reserved_170>": 259,
    "<reserved_171>": 260,
    "<reserved_172>": 261,
    "<reserved_173>": 262,
    "<reserved_174>": 263,
    "<reserved_175>": 264,
    "<reserved_176>": 265,
    "<reserved_177>": 266,
    "<reserved_178>": 267,
    "<reserved_179>": 268,
    "<reserved_180>": 269,
    "<reserved_181>": 270,
    "<reserved_182>": 271,
    "<reserved_183>": 272,
    "<reserved_184>": 273,
    "<reserved_185>": 274,
    "<reserved_186>": 275,
    "<reserved_187>": 276,
    "<reserved_188>": 277,
    "<reserved_189>": 278,
    "<reserved_190>": 279,
    "<reserved_191>": 280,
    "<reserved_192>": 281,
    "<reserved_193>": 282,
    "<reserved_194>": 283,
    "<reserved_195>": 284,
    "<reserved_196>": 285,
    "<reserved_197>": 286,
    "<reserved_198>": 287,
    "<reserved_199>": 288,
    "<reserved_200>": 289,
    "<reserved_201>": 290,
    "<reserved_202>": 291,
    "<reserved_203>": 292,
    "<reserved_204>": 293,
    "<reserved_205>": 294,
    "<reserved_206>": 295,
    "<reserved_207>": 296,
    "<reserved_208>": 297,
    "<reserved_209>": 298,
    "<reserved_210>": 299,
    "<reserved_211>": 300,
    "<reserved_212>": 301,
    "<reserved_213>": 302,
    "<reserved_214>": 303,
    "<reserved_215>": 304,
    "<reserved_216>": 305,
    "<reserved_217>": 306,
    "<reserved_218>": 307,
    "<reserved_219>": 308,
    "<reserved_220>": 309,
    "<reserved_221>": 310,
    "<reserved_222>": 311,
    "<reserved_223>": 312,
    "<reserved_224>": 313,
    "<reserved_225>": 314,
    "<reserved_226>": 315,
    "<reserved_227>": 316,
    "<reserved_228>": 317,
    "<reserved_229>": 318,
    "<reserved_230>": 319,
    "<reserved_231>": 320,
    "<reserved_232>": 321,
    "<reserved_233>": 322,
    "<reserved_234>": 323,
    "<reserved_235>": 324,
    "<reserved_236>": 325,
    "<reserved_237>": 326,
    "<reserved_238>": 327,
    "<reserved_239>": 328,
    "<reserved_240>": 329,
    "<reserved_241>": 330,
    "<reserved_242>": 331,
    "<reserved_243>": 332,
    "<reserved_244>": 333,
    "<reserved_245>": 334,
    "<reserved_246>": 335,
    "<reserved_247>": 336,
    "<reserved_248>": 337,
    "<reserved_249>": 338,
    "<reserved_250>": 339,
    "<reserved_251>": 340,
    "<reserved_252>": 341,
    "<reserved_253>": 342,
    "<reserved_254>": 343,
    "<reserved_255>": 344,
    "<reserved_256>": 345,
    "<reserved_257>": 346,
    "<reserved_258>": 347,
    "<reserved_259>": 348,
    "<reserved_260>": 349,
    "<reserved_261>": 350,
    "<reserved_262>": 351,
    "<reserved_263>": 352,
    "<reserved_264>": 353,
    "<reserved_265>": 354,
    "<reserved_266>": 355,
    "<reserved_267>": 356,
    "<reserved_268>": 357,
    "<reserved_269>": 358,
    "<reserved_270>": 359,
    "<reserved_271>": 360,
    "<reserved_272>": 361,
    "<reserved_273>": 362,
    "<reserved_274>": 363,
    "<reserved_275>": 364,
    "<reserved_276>": 365,
    "<reserved_277>": 366,
    "<reserved_278>": 367,
    "<reserved_279>": 368,
    "<reserved_280>": 369,
    "<reserved_281>": 370,
    "<reserved_282>": 371,
    "<reserved_283>": 372,
    "<reserved_284>": 373,
    "<reserved_285>": 374,
    "<reserved_286>": 375,
    "<reserved_287>": 376,
    "<reserved_288>": 377,
    "<reserved_289>": 378,
    "<reserved_290>": 379,
    "<reserved_291>": 380,
    "<reserved_292>": 381,
    "<reserved_293>": 382,
    "<reserved_294>": 383,
    "<reserved_295>": 384,
    "<reserved_296>": 385,
    "<reserved_297>": 386,
    "<reserved_298>": 387,
    "<reserved_299>": 388,
    "<reserved_300>": 389,
    "<reserved_301>": 390,
    "<reserved_302>": 391,
    "<reserved_303>": 392,
    "<reserved_304>": 393,
    "<reserved_305>": 394,
    "<reserved_306>": 395,
    "<reserved_307>": 396,
    "<reserved_308>": 397,
    "<reserved_309>": 398,
    "<reserved_310>": 399,
    "<reserved_311>": 400,
    "<reserved_312>": 401,
    "<reserved_313>": 402,
    "<reserved_314>": 403,
    "<reserved_315>": 404,
    "<reserved_316>": 405,
    "<reserved_317>": 406,
    "<reserved_318>": 407,
    "<reserved_319>": 408,
    "<reserved_320>": 409,
    "<reserved_321>": 410,
    "<reserved_322>": 411,
    "<reserved_323>": 412,
    "<reserved_324>": 413,
    "<reserved_325>": 414,
    "<reserved_326>": 415,
    "<reserved_327>": 416,
    "<reserved_328>": 417,
    "<reserved_329>": 418,
    "<reserved_330>": 419,
    "<reserved_331>": 420,
    "<reserved_332>": 421,
    "<reserved_333>": 422,
    "<reserved_334>": 423,
    "<reserved_335>": 424,
    "<reserved_336>": 425,
    "<reserved_337>": 426,
    "<reserved_338>": 427,
    "<reserved_339>": 428,
    "<reserved_340>": 429,
    "<reserved_341>": 430,
    "<reserved_342>": 431,
    "<reserved_343>": 432,
    "<reserved_344>": 433,
    "<reserved_345>": 434,
    "<reserved_346>": 435,
    "<reserved_347>": 436,
    "<reserved_348>": 437,
    "<reserved_349>": 438,
    "<reserved_350>": 439,
    "<reserved_351>": 440,
    "<reserved_352>": 441,
    "<reserved_353>": 442,
    "<reserved_354>": 443,
    "<reserved_355>": 444,
    "<reserved_356>": 445,
    "<reserved_357>": 446,
    "<reserved_358>": 447,
    "<reserved_359>": 448,
    "<reserved_360>": 449,
    "<reserved_361>": 450,
    "<reserved_362>": 451,
    "<reserved_363>": 452,
    "<reserved_364>": 453,
    "<reserved_365>": 454,
    "<reserved_366>": 455,
    "<reserved_367>": 456,
    "<reserved_368>": 457,
    "<reserved_369>": 458,
    "<reserved_370>": 459,
    "<reserved_371>": 460,
    "<reserved_372>": 461,
    "<reserved_373>": 462,
    "<reserved_374>": 463,
    "<reserved_375>": 464,
    "<reserved_376>": 465,
    "<reserved_377>": 466,
    "<reserved_378>": 467,
    "<reserved_379>": 468,
    "<reserved_380>": 469,
    "<reserved_381>": 470,
    "<reserved_382>": 471,
    "<reserved_383>": 472,
    "<reserved_384>": 473,
    "<reserved_385>": 474,
    "<reserved_386>": 475,
    "<reserved_387>": 476,
    "<reserved_388>": 477,
    "<reserved_389>": 478,
    "<reserved_390>": 479,
    "<reserved_391>": 480,
    "<reserved_392>": 481,
    "<reserved_393>": 482,
    "<reserved_394>": 483,
    "<reserved_395>": 484,
    "<reserved_396>": 485,
    "<reserved_397>": 486,
    "<reserved_398>": 487,
    "<reserved_399>": 488,
    "<reserved_400>": 489,
    "<reserved_401>": 490,
    "<reserved_402>": 491,
    "<reserved_403>": 492,
    "<reserved_404>": 493,
    "<reserved_405>": 494,
    "<reserved_406>": 495,
    "<reserved_407>": 496,
    "<reserved_408>": 497,
    "<reserved_409>": 498,
    "<reserved_410>": 499,
    "<reserved_411>": 500,
    "<reserved_412>": 501,
    "<reserved_413>": 502,
    "<reserved_414>": 503,
    "<reserved_415>": 504,
    "<reserved_416>": 505,
    "<reserved_417>": 506,
    "<reserved_418>": 507,
    "<reserved_419>": 508,
    "<reserved_420>": 509,
    "<reserved_421>": 510,
    "<reserved_422>": 511,
    "<reserved_423>": 512,
    "<reserved_424>": 513,
    "<reserved_425>": 514,
    "<reserved_426>": 515,
    "<reserved_427>": 516,
    "<reserved_428>": 517,
    "<reserved_429>": 518,
    "<reserved_430>": 519,
    "<reserved_431>": 520,
    "<reserved_432>": 521,
    "<reserved_433>": 522,
    "<reserved_434>": 523,
    "<reserved_435>": 524,
    "<reserved_436>": 525,
    "<reserved_437>": 526,
    "<reserved_438>": 527,
    "<reserved_439>": 528,
    "<reserved_440>": 529,
    "<reserved_441>": 530,
    "<reserved_442>": 531,
    "<reserved_443>": 532,
    "<reserved_444>": 533,
    "<reserved_445>": 534,
    "<reserved_446>": 535,
    "<reserved_447>": 536,
    "<reserved_448>": 537,
    "<reserved_449>": 538,
    "<reserved_450>": 539,
    "<reserved_451>": 540,
    "<reserved_452>": 541,
    "<reserved_453>": 542,
    "<reserved_454>": 543,
    "<reserved_455>": 544,
    "<reserved_456>": 545,
    "<reserved_457>": 546,
    "<reserved_458>": 547,
    "<reserved_459>": 548,
    "<reserved_460>": 549,
    "<reserved_461>": 550,
    "<reserved_462>": 551,
    "<reserved_463>": 552,
    "<reserved_464>": 553,
    "<reserved_465>": 554,
    "<reserved_466>": 555,
    "<reserved_467>": 556,
    "<reserved_468>": 557,
    "<reserved_469>": 558,
    "<reserved_470>": 559,
    "<reserved_471>": 560,
    "<reserved_472>": 561,
    "<reserved_473>": 562,
    "<reserved_474>": 563,
    "<reserved_475>": 564,
    "<reserved_476>": 565,
    "<reserved_477>": 566,
    "<reserved_478>": 567,
    "<reserved_479>": 568,
    "<reserved_480>": 569,
    "<reserved_481>": 570,
    "<reserved_482>": 571,
    "<reserved_483>": 572,
    "<reserved_484>": 573,
    "<reserved_485>": 574,
    "<reserved_486>": 575,
    "<reserved_487>": 576,
    "<reserved_488>": 577,
    "<reserved_489>": 578,
    "<reserved_490>": 579,
    "<reserved_491>": 580,
    "<reserved_492>": 581,
    "<reserved_493>": 582,
    "<reserved_494>": 583,
    "<reserved_495>": 584,
    "<reserved_496>": 585,
    "<reserved_497>": 586,
    "<reserved_498>": 587,
    "<reserved_499>": 588,
    "<reserved_500>": 589,
    "<reserved_501>": 590,
    "<reserved_502>": 591,
    "<reserved_503>": 592,
    "<reserved_504>": 593,
    "<reserved_505>": 594,
    "<reserved_506>": 595,
    "<reserved_507>": 596,
    "<reserved_508>": 597,
    "<reserved_509>": 598,
    "<reserved_510>": 599,
    "<reserved_511>": 600,
    "<reserved_512>": 601,
    "<reserved_513>": 602,
    "<reserved_514>": 603,
    "<reserved_515>": 604,
    "<reserved_516>": 605,
    "<reserved_517>": 606,
    "<reserved_518>": 607,
    "<reserved_519>": 608,
    "<reserved_520>": 609,
    "<reserved_521>": 610,
    "<reserved_522>": 611,
    "<reserved_523>": 612,
    "<reserved_524>": 613,
    "<reserved_525>": 614,
    "<reserved_526>": 615,
    "<reserved_527>": 616,
    "<reserved_528>": 617,
    "<reserved_529>": 618,
    "<reserved_530>": 619,
    "<reserved_531>": 620,
    "<reserved_532>": 621,
    "<reserved_533>": 622,
    "<reserved_534>": 623,
    "<reserved_535>": 624,
    "<reserved_536>": 625,
    "<reserved_537>": 626,
    "<reserved_538>": 627,
    "<reserved_539>": 628,
    "<reserved_540>": 629,
    "<reserved_541>": 630,
    "<reserved_542>": 631,
    "<reserved_543>": 632,
    "<reserved_544>": 633,
    "<reserved_545>": 634,
    "<reserved_546>": 635,
    "<reserved_547>": 636,
    "<reserved_548>": 637,
    "<reserved_549>": 638,
    "<reserved_550>": 639,
    "<reserved_551>": 640,
    "<reserved_552>": 641,
    "<reserved_553>": 642,
    "<reserved_554>": 643,
    "<reserved_555>": 644,
    "<reserved_556>": 645,
    "<reserved_557>": 646,
    "<reserved_558>": 647,
    "<reserved_559>": 648,
    "<reserved_560>": 649,
    "<reserved_561>": 650,
    "<reserved_562>": 651,
    "<reserved_563>": 652,
    "<reserved_564>": 653,
    "<reserved_565>": 654,
    "<reserved_566>": 655,
    "<reserved_567>": 656,
    "<reserved_568>": 657,
    "<reserved_569>": 658,
    "<reserved_570>": 659,
    "<reserved_571>": 660,
    "<reserved_572>": 661,
    "<reserved_573>": 662,
    "<reserved_574>": 663,
    "<reserved_575>": 664,
    "<reserved_576>": 665,
    "<reserved_577>": 666,
    "<reserved_578>": 667,
    "<reserved_579>": 668,
    "<reserved_580>": 669,
    "<reserved_581>": 670,
    "<reserved_582>": 671,
    "<reserved_583>": 672,
    "<reserved_584>": 673,
    "<reserved_585>": 674,
    "<reserved_586>": 675,
    "<reserved_587>": 676,
    "<reserved_588>": 677,
    "<reserved_589>": 678,
    "<reserved_590>": 679,
    "<reserved_591>": 680,
    "<reserved_592>": 681,
    "<reserved_593>": 682,
    "<reserved_594>": 683,
    "<reserved_595>": 684,
    "<reserved_596>": 685,
    "<reserved_597>": 686,
    "<reserved_598>": 687,
    "<reserved_599>": 688,
    "<reserved_600>": 689,
    "<reserved_601>": 690,
    "<reserved_602>": 691,
    "<reserved_603>": 692,
    "<reserved_604>": 693,
    "<reserved_605>": 694,
    "<reserved_606>": 695,
    "<reserved_607>": 696,
    "<reserved_608>": 697,
    "<reserved_609>": 698,
    "<reserved_610>": 699,
    "<reserved_611>": 700,
    "<reserved_612>": 701,
    "<reserved_613>": 702,
    "<reserved_614>": 703,
    "<reserved_615>": 704,
    "<reserved_616>": 705,
    "<reserved_617>": 706,
    "<reserved_618>": 707,
    "<reserved_619>": 708,
    "<reserved_620>": 709,
    "<reserved_621>": 710,
    "<reserved_622>": 711,
    "<reserved_623>": 712,
    "<reserved_624>": 713,
    "<reserved_625>": 714,
    "<reserved_626>": 715,
    "<reserved_627>": 716,
    "<reserved_628>": 717,
    "<reserved_629>": 718,
    "<reserved_630>": 719,
    "<reserved_631>": 720,
    "<reserved_632>": 721,
    "<reserved_633>": 722,
    "<reserved_634>": 723,
    "<reserved_635>": 724,
    "<reserved_636>": 725,
    "<reserved_637>": 726,
    "<reserved_638>": 727,
    "<reserved_639>": 728,
    "<reserved_640>": 729,
    "<reserved_641>": 730,
    "<reserved_642>": 731,
    "<reserved_643>": 732,
    "<reserved_644>": 733,
    "<reserved_645>": 734,
    "<reserved_646>": 735,
    "<reserved_647>": 736,
    "<reserved_648>": 737,
    "<reserved_649>": 738,
    "<reserved_650>": 739,
    "<reserved_651>": 740,
    "<reserved_652>": 741,
    "<reserved_653>": 742,
    "<reserved_654>": 743,
    "<reserved_655>": 744,
    "<reserved_656>": 745,
    "<reserved_657>": 746,
    "<reserved_658>": 747,
    "<reserved_659>": 748,
    "<reserved_660>": 749,
    "<reserved_661>": 750,
    "<reserved_662>": 751,
    "<reserved_663>": 752,
    "<reserved_664>": 753,
    "<reserved_665>": 754,
    "<reserved_666>": 755,
    "<reserved_667>": 756,
    "<reserved_668>": 757,
    "<reserved_669>": 758,
    "<reserved_670>": 759,
    "<reserved_671>": 760,
    "<reserved_672>": 761,
    "<reserved_673>": 762,
    "<reserved_674>": 763,
    "<reserved_675>": 764,
    "<reserved_676>": 765,
    "<reserved_677>": 766,
    "<reserved_678>": 767,
    "<reserved_679>": 768,
    "<reserved_680>": 769,
    "<reserved_681>": 770,
    "<reserved_682>": 771,
    "<reserved_683>": 772,
    "<reserved_684>": 773,
    "<reserved_685>": 774,
    "<reserved_686>": 775,
    "<reserved_687>": 776,
    "<reserved_688>": 777,
    "<reserved_689>": 778,
    "<reserved_690>": 779,
    "<reserved_691>": 780,
    "<reserved_692>": 781,
    "<reserved_693>": 782,
    "<reserved_694>": 783,
    "<reserved_695>": 784,
    "<reserved_696>": 785,
    "<reserved_697>": 786,
    "<reserved_698>": 787,
    "<reserved_699>": 788,
    "<reserved_700>": 789,
    "<reserved_701>": 790,
    "<reserved_702>": 791,
    "<reserved_703>": 792,
    "<reserved_704>": 793,
    "<reserved_705>": 794,
    "<reserved_706>": 795,
    "<reserved_707>": 796,
    "<reserved_708>": 797,
    "<reserved_709>": 798,
    "<reserved_710>": 799,
    "<reserved_711>": 800,
    "<reserved_712>": 801,
    "<reserved_713>": 802,
    "<reserved_714>": 803,
    "<reserved_715>": 804,
    "<reserved_716>": 805,
    "<reserved_717>": 806,
    "<reserved_718>": 807,
    "<reserved_719>": 808,
    "<reserved_720>": 809,
    "<reserved_721>": 810,
    "<reserved_722>": 811,
    "<reserved_723>": 812,
    "<reserved_724>": 813,
    "<reserved_725>": 814,
    "<reserved_726>": 815,
    "<reserved_727>": 816,
    "<reserved_728>": 817,
    "<reserved_729>": 818,
    "<reserved_730>": 819,
    "<reserved_731>": 820,
    "<reserved_732>": 821,
    "<reserved_733>": 822,
    "<reserved_734>": 823,
    "<reserved_735>": 824,
    "<reserved_736>": 825,
    "<reserved_737>": 826,
    "<reserved_738>": 827,
    "<reserved_739>": 828,
    "<reserved_740>": 829,
    "<reserved_741>": 830,
    "<reserved_742>": 831,
    "<reserved_743>": 832,
    "<reserved_744>": 833,
    "<reserved_745>": 834,
    "<reserved_746>": 835,
    "<reserved_747>": 836,
    "<reserved_748>": 837,
    "<reserved_749>": 838,
    "<reserved_750>": 839,
    "<reserved_751>": 840,
    "<reserved_752>": 841,
    "<reserved_753>": 842,
    "<reserved_754>": 843,
    "<reserved_755>": 844,
    "<reserved_756>": 845,
    "<reserved_757>": 846,
    "<reserved_758>": 847,
    "<reserved_759>": 848,
    "<reserved_760>": 849,
    "<reserved_761>": 850,
    "<reserved_762>": 851,
    "<reserved_763>": 852,
    "<reserved_764>": 853,
    "<reserved_765>": 854,
    "<reserved_766>": 855,
    "<reserved_767>": 856,
    "<reserved_768>": 857,
    "<reserved_769>": 858,
    "<reserved_770>": 859,
    "<reserved_771>": 860,
    "<reserved_772>": 861,
    "<reserved_773>": 862,
    "<reserved_774>": 863,
    "<reserved_775>": 864,
    "<reserved_776>": 865,
    "<reserved_777>": 866,
    "<reserved_778>": 867,
    "<reserved_779>": 868,
    "<reserved_780>": 869,
    "<reserved_781>": 870,
    "<reserved_782>": 871,
    "<reserved_783>": 872,
    "<reserved_784>": 873,
    "<reserved_785>": 874,
    "<reserved_786>": 875,
    "<reserved_787>": 876,
    "<reserved_788>": 877,
    "<reserved_789>": 878,
    "<reserved_790>": 879,
    "<reserved_791>": 880,
    "<reserved_792>": 881,
    "<reserved_793>": 882,
    "<reserved_794>": 883,
    "<reserved_795>": 884,
    "<reserved_796>": 885,
    "<reserved_797>": 886,
    "<reserved_798>": 887,
    "<reserved_799>": 888,
    "<reserved_800>": 889,
    "<reserved_801>": 890,
    "<reserved_802>": 891,
    "<reserved_803>": 892,
    "<reserved_804>": 893,
    "<reserved_805>": 894,
    "<reserved_806>": 895,
    "<reserved_807>": 896,
    "<reserved_808>": 897,
    "<reserved_809>": 898,
    "<reserved_810>": 899,
    "<reserved_811>": 900,
    "<reserved_812>": 901,
    "<reserved_813>": 902,
    "<reserved_814>": 903,
    "<reserved_815>": 904,
    "<reserved_816>": 905,
    "<reserved_817>": 906,
    "<reserved_818>": 907,
    "<reserved_819>": 908,
    "<reserved_820>": 909,
    "<reserved_821>": 910,
    "<reserved_822>": 911,
    "<reserved_823>": 912,
    "<reserved_824>": 913,
    "<reserved_825>": 914,
    "<reserved_826>": 915,
    "<reserved_827>": 916,
    "<reserved_828>": 917,
    "<reserved_829>": 918,
    "<reserved_830>": 919,
    "<reserved_831>": 920,
    "<reserved_832>": 921,
    "<reserved_833>": 922,
    "<reserved_834>": 923,
    "<reserved_835>": 924,
    "<reserved_836>": 925,
    "<reserved_837>": 926,
    "<reserved_838>": 927,
    "<reserved_839>": 928,
    "<reserved_840>": 929,
    "<reserved_841>": 930,
    "<reserved_842>": 931,
    "<reserved_843>": 932,
    "<reserved_844>": 933,
    "<reserved_845>": 934,
    "<reserved_846>": 935,
    "<reserved_847>": 936,
    "<reserved_848>": 937,
    "<reserved_849>": 938,
    "<reserved_850>": 939,
    "<reserved_851>": 940,
    "<reserved_852>": 941,
    "<reserved_853>": 942,
    "<reserved_854>": 943,
    "<reserved_855>": 944,
    "<reserved_856>": 945,
    "<reserved_857>": 946,
    "<reserved_858>": 947,
    "<reserved_859>": 948,
    "<reserved_860>": 949,
    "<reserved_861>": 950,
    "<reserved_862>": 951,
    "<reserved_863>": 952,
    "<reserved_864>": 953,
    "<reserved_865>": 954,
    "<reserved_866>": 955,
    "<reserved_867>": 956,
    "<reserved_868>": 957,
    "<reserved_869>": 958,
    "<reserved_870>": 959,
    "<reserved_871>": 960,
    "<reserved_872>": 961,
    "<reserved_873>": 962,
    "<reserved_874>": 963,
    "<reserved_875>": 964,
    "<reserved_876>": 965,
    "<reserved_877>": 966,
    "<reserved_878>": 967,
    "<reserved_879>": 968,
    "<reserved_880>": 969,
    "<reserved_881>": 970,
    "<reserved_882>": 971,
    "<reserved_883>": 972,
    "<reserved_884>": 973,
    "<reserved_885>": 974,
    "<reserved_886>": 975,
    "<reserved_887>": 976,
    "<reserved_888>": 977,
    "<reserved_889>": 978,
    "<reserved_890>": 979,
    "<reserved_891>": 980,
    "<reserved_892>": 981,
    "<reserved_893>": 982,
    "<reserved_894>": 983,
    "<reserved_895>": 984,
    "<reserved_896>": 985,
    "<reserved_897>": 986,
    "<reserved_898>": 987,
    "<reserved_899>": 988,
    "<reserved_900>": 989,
    "<reserved_901>": 990,
    "<reserved_902>": 991,
    "<reserved_903>": 992,
    "<reserved_904>": 993,
    "<reserved_905>": 994,
    "<reserved_906>": 995,
    "<reserved_907>": 996,
    "<reserved_908>": 997,
    "<reserved_909>": 998,
    "<reserved_910>": 999,
    "<reserved_911>": 1000,
    "<reserved_912>": 1001,
    "<reserved_913>": 1002,
    "<reserved_914>": 1003,
    "<reserved_915>": 1004,
    "<reserved_916>": 1005,
    "<reserved_917>": 1006,
    "<reserved_918>": 1007,
    "<reserved_919>": 1008,
    "<reserved_920>": 1009,
    "<reserved_921>": 1010,
    "<reserved_922>": 1011,
    "<reserved_923>": 1012,
    "<reserved_924>": 1013,
    "<reserved_925>": 1014,
    "<reserved_926>": 1015,
    "<reserved_927>": 1016,
    "<reserved_928>": 1017,
    "<reserved_929>": 1018,
    "<reserved_930>": 1019,
    "<reserved_931>": 1020,
    "<reserved_932>": 1021,
    "<reserved_933>": 1022,
    "<reserved_934>": 1023,
    "<reserved_935>": 1024,
    "<reserved_936>": 1025,
    "<reserved_937>": 1026,
    "<reserved_938>": 1027,
    "<reserved_939>": 1028,
    "<reserved_940>": 1029,
    "<reserved_941>": 1030,
    "<reserved_942>": 1031,
    "<reserved_943>": 1032,
    "<reserved_944>": 1033,
    "<reserved_945>": 1034,
    "<reserved_946>": 1035,
    "<reserved_947>": 1036,
    "<reserved_948>": 1037,
    "<reserved_949>": 1038,
    "<reserved_950>": 1039,
    "<reserved_951>": 1040,
    "<reserved_952>": 1041,
    "<reserved_953>": 1042,
    "<reserved_954>": 1043,
    "<reserved_955>": 1044,
    "<reserved_956>": 1045,
    "<reserved_957>": 1046,
    "<reserved_958>": 1047,
    "<reserved_959>": 1048,
    "<reserved_960>": 1049,
    "<reserved_961>": 1050,
    "<reserved_962>": 1051,
    "<reserved_963>": 1052,
    "<reserved_964>": 1053,
    "<reserved_965>": 1054,
    "<reserved_966>": 1055,
    "<reserved_967>": 1056,
    "<reserved_968>": 1057,
    "<reserved_969>": 1058,
    "<reserved_970>": 1059,
    "<reserved_971>": 1060,
    "<reserved_972>": 1061,
    "<reserved_973>": 1062,
    "<reserved_974>": 1063,
    "<reserved_975>": 1064,
    "<reserved_976>": 1065,
    "<reserved_977>": 1066,
    "<reserved_978>": 1067,
    "<reserved_979>": 1068,
    "<reserved_980>": 1069,
    "<reserved_981>": 1070,
    "<reserved_982>": 1071,
    "<reserved_983>": 1072,
    "<reserved_984>": 1073,
    "<reserved_985>": 1074,
    "<reserved_986>": 1075,
    "<reserved_987>": 1076,
    "<reserved_988>": 1077,
    "<reserved_989>": 1078,
    "<reserved_990>": 1079,
    "<reserved_991>": 1080,
    "<reserved_992>": 1081,
    "<reserved_993>": 1082,
    "<reserved_994>": 1083,
    "<reserved_995>": 1084,
    "<reserved_996>": 1085,
    "<reserved_997>": 1086,
    "<reserved_998>": 1087,
    "<reserved_999>": 1088,
    "<0x00>": 1089,
    "<0x01>": 1090,
    "<0x02>": 1091,
    "<0x03>": 1092,
    "<0x04>": 1093,
    "<0x05>": 1094,
    "<0x06>": 1095,
    "<0x07>": 1096,
    "<0x08>": 1097,
    "<0x09>": 1098,
    "<0x0A>": 1099,
    "<0x0B>": 1100,
    "<0x0C>": 1101,
    "<0x0D>": 1102,
    "<0x0E>": 1103,
    "<0x0F>": 1104,
    "<0x10>": 1105,
    "<0x11>": 1106,
    "<0x12>": 1107,
    "<0x13>": 1108,
    "<0x14>": 1109,
    "<0x15>": 1110,
    "<0x16>": 1111,
    "<0x17>": 1112,
    "<0x18>": 1113,
    "<0x19>": 1114,
    "<0x1A>": 1115,
    "<0x1B>": 1116,
    "<0x1C>": 1117,
    "<0x1D>": 1118,
    "<0x1E>": 1119,
    "<0x1F>": 1120,
    "<0x20>": 1121,
    "<0x21>": 1122,
    "<0x22>": 1123,
    "<0x23>": 1124,
    "<0x24>": 1125,
    "<0x25>": 1126,
    "<0x26>": 1127,
    "<0x27>": 1128,
    "<0x28>": 1129,
    "<0x29>": 1130,
    "<0x2A>": 1131,
    "<0x2B>": 1132,
    "<0x2C>": 1133,
    "<0x2D>": 1134,
    "<0x2E>": 1135,
    "<0x2F>": 1136,
    "<0x30>": 1137,
    "<0x31>": 1138,
    "<0x32>": 1139,
    "<0x33>": 1140,
    "<0x34>": 1141,
    "<0x35>": 1142,
    "<0x36>": 1143,
    "<0x37>": 1144,
    "<0x38>": 1145,
    "<0x39>": 1146,
    "<0x3A>": 1147,
    "<0x3B>": 1148,
    "<0x3C>": 1149,
    "<0x3D>": 1150,
    "<0x3E>": 1151,
    "<0x3F>": 1152,
    "<0x40>": 1153,
    "<0x41>": 1154,
    "<0x42>": 1155,
    "<0x43>": 1156,
    "<0x44>": 1157,
    "<0x45>": 1158,
    "<0x46>": 1159,
    "<0x47>": 1160,
    "<0x48>": 1161,
    "<0x49>": 1162,
    "<0x4A>": 1163,
    "<0x4B>": 1164,
    "<0x4C>": 1165,
    "<0x4D>": 1166,
    "<0x4E>": 1167,
    "<0x4F>": 1168,
    "<0x50>": 1169,
    "<0x51>": 1170,
    "<0x52>": 1171,
    "<0x53>": 1172,
    "<0x54>": 1173,
    "<0x55>": 1174,
    "<0x56>": 1175,
    "<0x57>": 1176,
    "<0x58>": 1177,
    "<0x59>": 1178,
    "<0x5A>": 1179,
    "<0x5B>": 1180,
    "<0x5C>": 1181,
    "<0x5D>": 1182,
    "<0x5E>": 1183,
    "<0x5F>": 1184,
    "<0x60>": 1185,
    "<0x61>": 1186,
    "<0x62>": 1187,
    "<0x63>": 1188,
    "<0x64>": 1189,
    "<0x65>": 1190,
    "<0x66>": 1191,
    "<0x67>": 1192,
    "<0x68>": 1193,
    "<0x69>": 1194,
    "<0x6A>": 1195,
    "<0x6B>": 1196,
    "<0x6C>": 1197,
    "<0x6D>": 1198,
    "<0x6E>": 1199,
    "<0x6F>": 1200,
    "<0x70>": 1201,
    "<0x71>": 1202,
    "<0x72>": 1203,
    "<0x73>": 1204,
    "<0x74>": 1205,
    "<0x75>": 1206,
    "<0x76>": 1207,
    "<0x77>": 1208,
    "<0x78>": 1209,
    "<0x79>": 1210,
    "<0x7A>": 1211,
    "<0x7B>": 1212,
    "<0x7C>": 1213,
    "<0x7D>": 1214,
    "<0x7E>": 1215,
    "<0x7F>": 1216,
    "<0x80>": 1217,
    "<0x81>": 1218,
    "<0x82>": 1219,
    "<0x83>": 1220,
    "<0x84>": 1221,
    "<0x85>": 1222,
    "<0x86>": 1223,
    "<0x87>": 1224,
    "<0x88>": 1225,
    "<0x89>": 1226,
    "<0x8A>": 1227,
    "<0x8B>": 1228,
    "<0x8C>": 1229,
    "<0x8D>": 1230,
    "<0x8E>": 1231,
    "<0x8F>": 1232,
    "<0x90>": 1233,
    "<0x91>": 1234,
    "<0x92>": 1235,
    "<0x93>": 1236,
    "<0x94>": 1237,
    "<0x95>": 1238,
    "<0x96>": 1239,
    "<0x97>": 1240,
    "<0x98>": 1241,
    "<0x99>": 1242,
    "<0x9A>": 1243,
    "<0x9B>": 1244,
    "<0x9C>": 1245,
    "<0x9D>": 1246,
    "<0x9E>": 1247,
    "<0x9F>": 1248,
    "<0xA0>": 1249,
    "<0xA1>": 1250,
    "<0xA2>": 1251,
    "<0xA3>": 1252,
    "<0xA4>": 1253,
    "<0xA5>": 1254,
    "<0xA6>": 1255,
    "<0xA7>": 1256,
    "<0xA8>": 1257,
    "<0xA9>": 1258,
    "<0xAA>": 1259,
    "<0xAB>": 1260,
    "<0xAC>": 1261,
    "<0xAD>": 1262,
    "<0xAE>": 1263,
    "<0xAF>": 1264,
    "<0xB0>": 1265,
    "<0xB1>": 1266,
    "<0xB2>": 1267,
    "<0xB3>": 1268,
    "<0xB4>": 1269,
    "<0xB5>": 1270,
    "<0xB6>": 1271,
    "<0xB7>": 1272,
    "<0xB8>": 1273,
    "<0xB9>": 1274,
    "<0xBA>": 1275,
    "<0xBB>": 1276,
    "<0xBC>": 1277,
    "<0xBD>": 1278,
    "<0xBE>": 1279,
    "<0xBF>": 1280,
    "<0xC0>": 1281,
    "<0xC1>": 1282,
    "<0xC2>": 1283,
    "<0xC3>": 1284,
    "<0xC4>": 1285,
    "<0xC5>": 1286,
    "<0xC6>": 1287,
    "<0xC7>": 1288,
    "<0xC8>": 1289,
    "<0xC9>": 1290,
    "<0xCA>": 1291,
    "<0xCB>": 1292,
    "<0xCC>": 1293,
    "<0xCD>": 1294,
    "<0xCE>": 1295,
    "<0xCF>": 1296,
    "<0xD0>": 1297,
    "<0xD1>": 1298,
    "<0xD2>": 1299,
    "<0xD3>": 1300,
    "<0xD4>": 1301,
    "<0xD5>": 1302,
    "<0xD6>": 1303,
    "<0xD7>": 1304,
    "<0xD8>": 1305,
    "<0xD9>": 1306,
    "<0xDA>": 1307,
    "<0xDB>": 1308,
    "<0xDC>": 1309,
    "<0xDD>": 1310,
    "<0xDE>": 1311,
    "<0xDF>": 1312,
    "<0xE0>": 1313,
    "<0xE1>": 1314,
    "<0xE2>": 1315,
    "<0xE3>": 1316,
    "<0xE4>": 1317,
    "<0xE5>": 1318,
    "<0xE6>": 1319,
    "<0xE7>": 1320,
    "<0xE8>": 1321,
    "<0xE9>": 1322,
    "<0xEA>": 1323,
    "<0xEB>": 1324,
    "<0xEC>": 1325,
    "<0xED>": 1326,
    "<0xEE>": 1327,
    "<0xEF>": 1328,
    "<0xF0>": 1329,
    "<0xF1>": 1330,
    "<0xF2>": 1331,
    "<0xF3>": 1332,
    "<0xF4>": 1333,
    "<0xF5>": 1334,
    "<0xF6>": 1335,
    "<0xF7>": 1336,
    "<0xF8>": 1337,
    "<0xF9>": 1338,
    "<0xFA>": 1339,
    "<0xFB>": 1340,
    "<0xFC>": 1341,
    "<0xFD>": 1342,
    "<0xFE>": 1343,
    "<0xFF>": 1344,
    "▁t": 1345,
    "▁a": 1346,
    "in": 1347,
    "he": 1348,
    "re": 1349,
    "on": 1350,
    "er": 1351,
    "▁the": 1352,
    "▁s": 1353,
    "at": 1354,
    "or": 1355,
    "en": 1356,
    "▁w": 1357,
    "an": 1358,
    "it": 1359,
    "es": 1360,
    "▁c": 1361,
    "▁o": 1362,
    "is": 1363,
    "ing": 1364,
    "▁f": 1365,
    "nd": 1366,
    "al": 1367,
    "▁p": 1368,
    "ou": 1369,
    "ed": 1370,
    "ar": 1371,
    "▁b": 1372,
    "▁▁": 1373,
    "▁in": 1374,
    "▁to": 1375,
    "▁of": 1376,
    "▁and": 1377,
    "▁m": 1378,
    "ic": 1379,
    "ion": 1380,
    "▁d": 1381,
    "as": 1382,
    "le": 1383,
    "om": 1384,
    "▁h": 1385,
    "il": 1386,
    "ent": 1387,
    "▁th": 1388,
    "st": 1389,
    "ro": 1390,
    "el": 1391,
    "▁re": 1392,
    "▁l": 1393,
    "▁S": 1394,
    "ct": 1395,
    "et": 1396,
    "▁n": 1397,
    "▁T": 1398,
    "▁C": 1399,
    "▁e": 1400,
    "▁A": 1401,
    "id": 1402,
    "ve": 1403,
    "▁g": 1404,
    "ol": 1405,
    "▁I": 1406,
    "ut": 1407,
    "am": 1408,
    "ot": 1409,
    "ur": 1410,
    "▁▁▁▁": 1411,
    "▁for": 1412,
    "ay": 1413,
    "▁is": 1414,
    "▁on": 1415,
    "ad": 1416,
    "ac": 1417,
    "im": 1418,
    "ig": 1419,
    "ow": 1420,
    "ly": 1421,
    "▁M": 1422,
    "us": 1423,
    "ation": 1424,
    "▁be": 1425,
    "▁y": 1426,
    "ver": 1427,
    "▁P": 1428,
    "▁st": 1429,
    "ir": 1430,
    "ch": 1431,
    "▁B": 1432,
    "ith": 1433,
    "▁that": 1434,
    "ce": 1435,
    "▁with": 1436,
    "un": 1437,
    "▁you": 1438,
    "ers": 1439,
    "ul": 1440,
    "▁he": 1441,
    "▁it": 1442,
    "▁D": 1443,
    "se": 1444,
    "▁H": 1445,
    "ill": 1446,
    "ag": 1447,
    "ter": 1448,
    "▁as": 1449,
    "▁W": 1450,
    "▁R": 1451,
    "▁an": 1452,
    "▁al": 1453,
    "▁F": 1454,
    "em": 1455,
    "▁wh": 1456,
    "if": 1457,
    "▁(": 1458,
    "▁pro": 1459,
    "ra": 1460,
    "est": 1461,
    "ri": 1462,
    "▁con": 1463,
    "and": 1464,
    "th": 1465,
    "ew": 1466,
    "ist": 1467,
    "▁L": 1468,
    "op": 1469,
    "▁N": 1470,
    "od": 1471,
    "ate": 1472,
    "her": 1473,
    "▁at": 1474,
    "▁com": 1475,
    "ess": 1476,
    "um": 1477,
    "▁we": 1478,
    "pp": 1479,
    "ab": 1480,
    "▁The": 1481,
    "ke": 1482,
    "ore": 1483,
    "▁are": 1484,
    "▁G": 1485,
    "▁E": 1486,
    "ity": 1487,
    "rom": 1488,
    "ld": 1489,
    "▁v": 1490,
    "ort": 1491,
    "ht": 1492,
    "▁de": 1493,
    "res": 1494,
    "▁was": 1495,
    "oc": 1496,
    "ment": 1497,
    "os": 1498,
    "▁ex": 1499,
    "▁or": 1500,
    "qu": 1501,
    "▁ha": 1502,
    "ies": 1503,
    "art": 1504,
    "▁se": 1505,
    "ant": 1506,
    "▁r": 1507,
    "▁by": 1508,
    "ain": 1509,
    "ect": 1510,
    "▁J": 1511,
    "nt": 1512,
    "▁from": 1513,
    "ive": 1514,
    "▁O": 1515,
    "iv": 1516,
    "ust": 1517,
    "ud": 1518,
    "our": 1519,
    "end": 1520,
    "▁su": 1521,
    "all": 1522,
    "ear": 1523,
    "The": 1524,
    "▁ch": 1525,
    "ard": 1526,
    "▁have": 1527,
    "▁this": 1528,
    "ight": 1529,
    "▁sh": 1530,
    "▁U": 1531,
    "ial": 1532,
    "out": 1533,
    "red": 1534,
    "▁u": 1535,
    "ost": 1536,
    "工作": 1537,
    "▁not": 1538,
    "▁wor": 1539,
    "▁le": 1540,
    "▁▁▁▁▁▁▁▁": 1541,
    "ast": 1542,
    "我们": 1543,
    "rou": 1544,
    "og": 1545,
    "▁has": 1546,
    "ell": 1547,
    "ap": 1548,
    "ge": 1549,
    "ome": 1550,
    "ack": 1551,
    "▁pl": 1552,
    "ok": 1553,
    "▁us": 1554,
    "ak": 1555,
    "▁will": 1556,
    "ine": 1557,
    "一个": 1558,
    "▁can": 1559,
    "ould": 1560,
    "ure": 1561,
    "▁ab": 1562,
    "ia": 1563,
    "▁sp": 1564,
    "ec": 1565,
    "ide": 1566,
    "ff": 1567,
    "ip": 1568,
    "▁j": 1569,
    "ber": 1570,
    "pt": 1571,
    "▁St": 1572,
    "ions": 1573,
    "ich": 1574,
    "ice": 1575,
    "自己": 1576,
    "age": 1577,
    "per": 1578,
    "ong": 1579,
    "▁K": 1580,
    "▁all": 1581,
    "gh": 1582,
    "可以": 1583,
    "ub": 1584,
    "▁comp": 1585,
    "ry": 1586,
    "ans": 1587,
    "are": 1588,
    "ame": 1589,
    "ie": 1590,
    "▁“": 1591,
    "▁ad": 1592,
    "▁In": 1593,
    "▁k": 1594,
    "ated": 1595,
    "▁go": 1596,
    "▁your": 1597,
    "▁int": 1598,
    "ue": 1599,
    "ally": 1600,
    "▁whe": 1601,
    "ary": 1602,
    "▁en": 1603,
    "cc": 1604,
    "iz": 1605,
    "pl": 1606,
    "ther": 1607,
    "ind": 1608,
    "▁their": 1609,
    "▁cl": 1610,
    "▁his": 1611,
    "ous": 1612,
    "ass": 1613,
    "▁sa": 1614,
    "orm": 1615,
    "▁do": 1616,
    "ook": 1617,
    "cl": 1618,
    "▁but": 1619,
    "able": 1620,
    "act": 1621,
    "▁ne": 1622,
    "▁V": 1623,
    "one": 1624,
    "ime": 1625,
    "ep": 1626,
    "ult": 1627,
    "▁out": 1628,
    "▁more": 1629,
    "▁im": 1630,
    "▁cont": 1631,
    "so": 1632,
    "ire": 1633,
    "ace": 1634,
    "▁up": 1635,
    "▁they": 1636,
    "ake": 1637,
    "ance": 1638,
    "▁un": 1639,
    "▁Ch": 1640,
    "中国": 1641,
    "▁who": 1642,
    "▁me": 1643,
    "▁tr": 1644,
    "ib": 1645,
    "ations": 1646,
    "ord": 1647,
    "▁Th": 1648,
    "ign": 1649,
    "时间": 1650,
    "ere": 1651,
    "du": 1652,
    "av": 1653,
    "very": 1654,
    "▁year": 1655,
    "▁work": 1656,
    "ail": 1657,
    "ite": 1658,
    "▁res": 1659,
    "▁which": 1660,
    "▁one": 1661,
    "▁new": 1662,
    "ical": 1663,
    "▁\"": 1664,
    "▁te": 1665,
    "port": 1666,
    "没有": 1667,
    "ov": 1668,
    "ount": 1669,
    "▁about": 1670,
    "ase": 1671,
    "ents": 1672,
    "ile": 1673,
    "▁man": 1674,
    "ction": 1675,
    "▁Y": 1676,
    "ence": 1677,
    "ark": 1678,
    "▁so": 1679,
    "ru": 1680,
    "ach": 1681,
    "▁off": 1682,
    "erv": 1683,
    "form": 1684,
    "▁our": 1685,
    "ays": 1686,
    "▁app": 1687,
    "lic": 1688,
    "ond": 1689,
    "com": 1690,
    "▁per": 1691,
    "ll": 1692,
    "▁ar": 1693,
    "就是": 1694,
    "ang": 1695,
    "▁also": 1696,
    "进行": 1697,
    "mer": 1698,
    "vel": 1699,
    "int": 1700,
    "ory": 1701,
    "vers": 1702,
    "reat": 1703,
    "ob": 1704,
    "▁li": 1705,
    "ress": 1706,
    "ian": 1707,
    "▁part": 1708,
    "ition": 1709,
    "own": 1710,
    "人员": 1711,
    "ors": 1712,
    "孩子": 1713,
    "▁its": 1714,
    "▁been": 1715,
    "),": 1716,
    "ild": 1717,
    "疫情": 1718,
    "公司": 1719,
    "▁ag": 1720,
    "▁other": 1721,
    "ree": 1722,
    "ose": 1723,
    "▁dis": 1724,
    "▁said": 1725,
    "ely": 1726,
    "▁qu": 1727,
    "▁ev": 1728,
    "ens": 1729,
    "ick": 1730,
    "ings": 1731,
    "教育": 1732,
    "ish": 1733,
    "ound": 1734,
    "te": 1735,
    "ove": 1736,
    "▁her": 1737,
    "▁were": 1738,
    "ne": 1739,
    "▁sc": 1740,
    "生活": 1741,
    "的人": 1742,
    "▁pe": 1743,
    "▁over": 1744,
    "▁It": 1745,
    "irst": 1746,
    "什么": 1747,
    "发展": 1748,
    "”,": 1749,
    "▁time": 1750,
    "▁my": 1751,
    "oy": 1752,
    "ks": 1753,
    "问题": 1754,
    "▁had": 1755,
    "▁ro": 1756,
    "amp": 1757,
    "ople": 1758,
    "▁rec": 1759,
    "服务": 1760,
    "fter": 1761,
    "▁get": 1762,
    "ood": 1763,
    "old": 1764,
    "▁than": 1765,
    "管理": 1766,
    "▁would": 1767,
    "ric": 1768,
    "anc": 1769,
    "他们": 1770,
    "▁them": 1771,
    "▁there": 1772,
    "▁some": 1773,
    "wn": 1774,
    "oll": 1775,
    "▁acc": 1776,
    "▁when": 1777,
    "▁pre": 1778,
    "urn": 1779,
    "▁any": 1780,
    "ss": 1781,
    "use": 1782,
    "clud": 1783,
    "rit": 1784,
    "ng": 1785,
    "如果": 1786,
    "▁comm": 1787,
    "xt": 1788,
    "学习": 1789,
    "这个": 1790,
    "ates": 1791,
    "ool": 1792,
    "▁He": 1793,
    "▁kn": 1794,
    "▁like": 1795,
    "ade": 1796,
    "iew": 1797,
    "ont": 1798,
    "ons": 1799,
    "▁–": 1800,
    "nder": 1801,
    "pe": 1802,
    "tern": 1803,
    "ational": 1804,
    "企业": 1805,
    "▁tw": 1806,
    "▁Un": 1807,
    "▁people": 1808,
    "hed": 1809,
    "ph": 1810,
    "aw": 1811,
    "▁into": 1812,
    "igh": 1813,
    "▁first": 1814,
    "安全": 1815,
    "ater": 1816,
    "▁what": 1817,
    "ram": 1818,
    "因为": 1819,
    "ject": 1820,
    "▁$": 1821,
    ");": 1822,
    "大家": 1823,
    "ink": 1824,
    "活动": 1825,
    "ual": 1826,
    "时候": 1827,
    "▁fe": 1828,
    "▁just": 1829,
    "ious": 1830,
    "iss": 1831,
    "▁am": 1832,
    "信息": 1833,
    "▁des": 1834,
    "lect": 1835,
    "需要": 1836,
    "ef": 1837,
    "In": 1838,
    "情况": 1839,
    "通过": 1840,
    "▁if": 1841,
    "we": 1842,
    "ning": 1843,
    "▁bec": 1844,
    "ities": 1845,
    "▁she": 1846,
    "▁how": 1847,
    "国家": 1848,
    "▁includ": 1849,
    "学生": 1850,
    "rough": 1851,
    "enc": 1852,
    "要求": 1853,
    "人民": 1854,
    "▁We": 1855,
    "ft": 1856,
    "day": 1857,
    "▁ind": 1858,
    "▁need": 1859,
    "项目": 1860,
    "get": 1861,
    "▁prov": 1862,
    "ath": 1863,
    "les": 1864,
    "pport": 1865,
    "▁Re": 1866,
    "ck": 1867,
    "不是": 1868,
    "▁▁▁": 1869,
    "第一": 1870,
    "ublic": 1871,
    "▁New": 1872,
    "iff": 1873,
    "健康": 1874,
    "//": 1875,
    "▁act": 1876,
    "▁most": 1877,
    "▁add": 1878,
    "round": 1879,
    "很多": 1880,
    "▁years": 1881,
    "ident": 1882,
    "olog": 1883,
    "▁Com": 1884,
    "▁two": 1885,
    "建设": 1886,
    "▁after": 1887,
    "ps": 1888,
    "▁&": 1889,
    "可能": 1890,
    "这样": 1891,
    "人的": 1892,
    "ert": 1893,
    "Th": 1894,
    "ise": 1895,
    "li": 1896,
    "hen": 1897,
    "▁bet": 1898,
    "▁through": 1899,
    "any": 1900,
    "▁under": 1901,
    "社会": 1902,
    "ug": 1903,
    "ock": 1904,
    "▁em": 1905,
    "▁play": 1906,
    "ward": 1907,
    "▁no": 1908,
    "sh": 1909,
    "row": 1910,
    "▁only": 1911,
    "ife": 1912,
    "ating": 1913,
    "已经": 1914,
    "大学": 1915,
    "ork": 1916,
    "ty": 1917,
    "▁serv": 1918,
    "ific": 1919,
    "▁cons": 1920,
    "▁inv": 1921,
    "▁hel": 1922,
    "学校": 1923,
    "▁bu": 1924,
    "中心": 1925,
    "▁bl": 1926,
    "▁stud": 1927,
    "als": 1928,
    "pect": 1929,
    "来源": 1930,
    "ting": 1931,
    "▁co": 1932,
    "yst": 1933,
    "防控": 1934,
    "——": 1935,
    "ics": 1936,
    "自己的": 1937,
    "ause": 1938,
    "▁att": 1939,
    "专业": 1940,
    "所以": 1941,
    "▁imp": 1942,
    "ivers": 1943,
    "▁produ": 1944,
    "都是": 1945,
    "und": 1946,
    "ring": 1947,
    "io": 1948,
    "arch": 1949,
    "eth": 1950,
    "▁reg": 1951,
    "相关": 1952,
    "▁back": 1953,
    "ased": 1954,
    "ough": 1955,
    "▁This": 1956,
    ",”": 1957,
    "oint": 1958,
    "ily": 1959,
    "ited": 1960,
    "uring": 1961,
    "rib": 1962,
    "▁Pro": 1963,
    "使用": 1964,
    "oth": 1965,
    "▁may": 1966,
    "开始": 1967,
    "chool": 1968,
    "ments": 1969,
    "ict": 1970,
    "velop": 1971,
    "▁well": 1972,
    "elf": 1973,
    "ful": 1974,
    "重要": 1975,
    "ek": 1976,
    "▁make": 1977,
    "erm": 1978,
    "iness": 1979,
    "联系": 1980,
    "ren": 1981,
    "▁pr": 1982,
    "land": 1983,
    "ata": 1984,
    "alth": 1985,
    "ange": 1986,
    "▁every": 1987,
    "▁fl": 1988,
    "ts": 1989,
    "▁col": 1990,
    "的一": 1991,
    "市场": 1992,
    "ience": 1993,
    "▁Ar": 1994,
    "也是": 1995,
    "▁know": 1996,
    "▁sec": 1997,
    "研究": 1998,
    "▁these": 1999,
    "▁ph": 2000,
    "这些": 2001,
    "还是": 2002,
    "▁where": 2003,
    "▁look": 2004,
    "▁help": 2005,
    "▁could": 2006,
    "▁inc": 2007,
    "ener": 2008,
    "▁many": 2009,
    "riv": 2010,
    "ility": 2011,
    "网络": 2012,
    "ex": 2013,
    "ices": 2014,
    "好的": 2015,
    "现在": 2016,
    "方式": 2017,
    "▁tra": 2018,
    "技术": 2019,
    "单位": 2020,
    "erson": 2021,
    "▁fin": 2022,
    "ys": 2023,
    "gan": 2024,
    "oss": 2025,
    "但是": 2026,
    "▁pol": 2027,
    "ures": 2028,
    "ement": 2029,
    "▁want": 2030,
    "▁rem": 2031,
    "▁ass": 2032,
    "ash": 2033,
    "▁diff": 2034,
    "关注": 2035,
    "朋友": 2036,
    "bs": 2037,
    "▁ac": 2038,
    "ystem": 2039,
    ":“": 2040,
    "aking": 2041,
    "同时": 2042,
    "usiness": 2043,
    "▁rel": 2044,
    "ues": 2045,
    "▁exper": 2046,
    "微信": 2047,
    "▁set": 2048,
    "组织": 2049,
    "ract": 2050,
    "▁ent": 2051,
    "ull": 2052,
    "▁now": 2053,
    "ower": 2054,
    "一定": 2055,
    "▁De": 2056,
    "ative": 2057,
    "老师": 2058,
    "uch": 2059,
    "ible": 2060,
    "ular": 2061,
    "部分": 2062,
    "▁world": 2063,
    "▁Wh": 2064,
    "▁use": 2065,
    "到了": 2066,
    "oun": 2067,
    "ner": 2068,
    "az": 2069,
    "up": 2070,
    "非常": 2071,
    "所有": 2072,
    "ww": 2073,
    "air": 2074,
    "ix": 2075,
    "个人": 2076,
    "▁show": 2077,
    "pr": 2078,
    "内容": 2079,
    "|　": 2080,
    "发现": 2081,
    "its": 2082,
    "▁{": 2083,
    "fore": 2084,
    "ax": 2085,
    "irect": 2086,
    "不能": 2087,
    "▁way": 2088,
    "世界": 2089,
    "知道": 2090,
    "能力": 2091,
    "ied": 2092,
    "▁ke": 2093,
    "▁dec": 2094,
    "St": 2095,
    "▁Sh": 2096,
    "▁pres": 2097,
    "meric": 2098,
    "提供": 2099,
    "▁count": 2100,
    "影响": 2101,
    "的是": 2102,
    "ank": 2103,
    "▁start": 2104,
    "的时候": 2105,
    "▁own": 2106,
    "itt": 2107,
    "▁see": 2108,
    "招聘": 2109,
    "▁Se": 2110,
    "ah": 2111,
    "҉҉": 2112,
    "经济": 2113,
    "con": 2114,
    "▁very": 2115,
    "▁Al": 2116,
    "ins": 2117,
    "▁fam": 2118,
    "一起": 2119,
    "▁art": 2120,
    "▁him": 2121,
    "view": 2122,
    "man": 2123,
    "▁'": 2124,
    "发布": 2125,
    "▁right": 2126,
    "▁loc": 2127,
    "▁even": 2128,
    "ason": 2129,
    "以上": 2130,
    "ient": 2131,
    "hes": 2132,
    "formation": 2133,
    "ced": 2134,
    "gram": 2135,
    "▁You": 2136,
    "选择": 2137,
    "▁such": 2138,
    "▁inst": 2139,
    "▁again": 2140,
    "▁high": 2141,
    "iel": 2142,
    "▁Le": 2143,
    "▁develop": 2144,
    "▁And": 2145,
    "the": 2146,
    "▁lead": 2147,
    "出现": 2148,
    "产品": 2149,
    "hip": 2150,
    "ret": 2151,
    "chn": 2152,
    "other": 2153,
    "ale": 2154,
    "ven": 2155,
    "▁spec": 2156,
    "医院": 2157,
    "ince": 2158,
    "全国": 2159,
    "let": 2160,
    "▁mon": 2161,
    "▁eff": 2162,
    "▁end": 2163,
    "　|　": 2164,
    "为了": 2165,
    "▁should": 2166,
    "文化": 2167,
    "城市": 2168,
    "根据": 2169,
    "▁mem": 2170,
    "▁then": 2171,
    "ives": 2172,
    "不要": 2173,
    "ble": 2174,
    "政府": 2175,
    "▁being": 2176,
    "设计": 2177,
    "ines": 2178,
    "▁gu": 2179,
    "vern": 2180,
    "▁call": 2181,
    "▁did": 2182,
    "▁car": 2183,
    "uc": 2184,
    "其他": 2185,
    "iversity": 2186,
    "▁sm": 2187,
    "We": 2188,
    "▁trans": 2189,
    "对于": 2190,
    "平台": 2191,
    "pen": 2192,
    "你的": 2193,
    "▁An": 2194,
    "目前": 2195,
    "▁long": 2196,
    "考试": 2197,
    "atch": 2198,
    "▁public": 2199,
    "▁support": 2200,
    "▁because": 2201,
    "还有": 2202,
    "报名": 2203,
    "一些": 2204,
    "oh": 2205,
    "▁sur": 2206,
    "开展": 2207,
    "ollow": 2208,
    "unity": 2209,
    "ouse": 2210,
    "▁good": 2211,
    "▁made": 2212,
    "▁last": 2213,
    "电话": 2214,
    "▁Americ": 2215,
    "方面": 2216,
    "作为": 2217,
    "中的": 2218,
    "工程": 2219,
    "▁great": 2220,
    "ution": 2221,
    "▁ret": 2222,
    "▁team": 2223,
    "▁gr": 2224,
    "▁ins": 2225,
    "▁med": 2226,
    "to": 2227,
    "ital": 2228,
    "**": 2229,
    "▁Tr": 2230,
    "主要": 2231,
    "疫情防控": 2232,
    "▁char": 2233,
    "cept": 2234,
    "▁fil": 2235,
    "▁much": 2236,
    "ets": 2237,
    "大的": 2238,
    "交通": 2239,
    "ton": 2240,
    "Wh": 2241,
    "ave": 2242,
    "uth": 2243,
    "不会": 2244,
    "▁ear": 2245,
    "发生": 2246,
    "▁bel": 2247,
    "ames": 2248,
    "环境": 2249,
    "▁those": 2250,
    "▁mod": 2251,
    "ology": 2252,
    "ms": 2253,
    "以及": 2254,
    "ages": 2255,
    "部门": 2256,
    "▁down": 2257,
    "ces": 2258,
    "规定": 2259,
    "▁business": 2260,
    "▁don": 2261,
    "▁before": 2262,
    "▁requ": 2263,
    "▁def": 2264,
    "▁num": 2265,
    "▁br": 2266,
    "ten": 2267,
    "▁find": 2268,
    "▁mark": 2269,
    "oci": 2270,
    "line": 2271,
    "▁best": 2272,
    "▁ser": 2273,
    "系统": 2274,
    "▁differe": 2275,
    "▁vis": 2276,
    "ists": 2277,
    "read": 2278,
    "▁cur": 2279,
    "▁class": 2280,
    "cess": 2281,
    "▁Sc": 2282,
    "▁ed": 2283,
    "▁cre": 2284,
    "led": 2285,
    "▁min": 2286,
    "It": 2287,
    "是一": 2288,
    "▁does": 2289,
    "更多": 2290,
    "或者": 2291,
    "地区": 2292,
    "ween": 2293,
    "▁take": 2294,
    "▁Cl": 2295,
    "美国": 2296,
    "illion": 2297,
    "way": 2298,
    "喜欢": 2299,
    "ather": 2300,
    "▁ra": 2301,
    "rent": 2302,
    "责任": 2303,
    "……": 2304,
    "怎么": 2305,
    "ern": 2306,
    "▁inter": 2307,
    "▁av": 2308,
    "▁read": 2309,
    "▁while": 2310,
    "▁life": 2311,
    "▁Sp": 2312,
    "了解": 2313,
    "imes": 2314,
    "▁system": 2315,
    "▁sub": 2316,
    "来的": 2317,
    "生产": 2318,
    "eg": 2319,
    "roup": 2320,
    "://": 2321,
    "orn": 2322,
    "有限": 2323,
    "▁person": 2324,
    "els": 2325,
    "alk": 2326,
    "视频": 2327,
    "▁here": 2328,
    "知识": 2329,
    "▁‘": 2330,
    "▁For": 2331,
    "▁day": 2332,
    "▁Ind": 2333,
    "uss": 2334,
    "▁found": 2335,
    "▁think": 2336,
    "▁disc": 2337,
    "oot": 2338,
    "了一": 2339,
    "der": 2340,
    ",　": 2341,
    "做好": 2342,
    "▁information": 2343,
    "注意": 2344,
    "▁home": 2345,
    "▁—": 2346,
    "This": 2347,
    "▁As": 2348,
    "ize": 2349,
    "如何": 2350,
    "vent": 2351,
    "▁ext": 2352,
    "精神": 2353,
    "ode": 2354,
    "ands": 2355,
    "进入": 2356,
    "▁between": 2357,
    "那么": 2358,
    "▁Ad": 2359,
    "成为": 2360,
    "WS": 2361,
    "▁report": 2362,
    "▁exp": 2363,
    "ute": 2364,
    "关于": 2365,
    "▁conf": 2366,
    "病毒": 2367,
    "▁used": 2368,
    "ered": 2369,
    "▁care": 2370,
    "ield": 2371,
    "▁sign": 2372,
    "▁ref": 2373,
    "aj": 2374,
    "▁str": 2375,
    "ann": 2376,
    "akes": 2377,
    "ross": 2378,
    "新冠": 2379,
    "▁child": 2380,
    "不同": 2381,
    "第二": 2382,
    "ars": 2383,
    "arm": 2384,
    "▁cour": 2385,
    "▁around": 2386,
    "▁cent": 2387,
    "▁det": 2388,
    "ral": 2389,
    "▁Bl": 2390,
    "▁follow": 2391,
    "表示": 2392,
    "ually": 2393,
    "教师": 2394,
    "▁program": 2395,
    "tt": 2396,
    "▁three": 2397,
    "ever": 2398,
    "ional": 2399,
    "▁But": 2400,
    "能够": 2401,
    "oad": 2402,
    "▁|": 2403,
    "ina": 2404,
    "每天": 2405,
    "ox": 2406,
    "gy": 2407,
    "ety": 2408,
    "▁provid": 2409,
    "其中": 2410,
    "▁Fr": 2411,
    "att": 2412,
    "▁design": 2413,
    "身体": 2414,
    "usic": 2415,
    "▁som": 2416,
    "标准": 2417,
    "▁sim": 2418,
    "▁both": 2419,
    "北京": 2420,
    "一步": 2421,
    "bers": 2422,
    "ier": 2423,
    "▁during": 2424,
    "ik": 2425,
    "▁including": 2426,
    "▁Is": 2427,
    "ER": 2428,
    "▁still": 2429,
    "▁rep": 2430,
    "▁fun": 2431,
    "ants": 2432,
    "数据": 2433,
    "ished": 2434,
    "特别": 2435,
    "之后": 2436,
    "ness": 2437,
    "价格": 2438,
    "eng": 2439,
    "这种": 2440,
    "今天": 2441,
    "▁school": 2442,
    "ism": 2443,
    "点击": 2444,
    "资源": 2445,
    "▁contin": 2446,
    "起来": 2447,
    "▁Ph": 2448,
    "其实": 2449,
    "▁che": 2450,
    "▁val": 2451,
    "▁*": 2452,
    "mber": 2453,
    "方法": 2454,
    "完成": 2455,
    "学院": 2456,
    "▁del": 2457,
    "书记": 2458,
    "▁gl": 2459,
    "ality": 2460,
    "ght": 2461,
    "ved": 2462,
    "一次": 2463,
    "▁book": 2464,
    "▁▁▁▁▁▁▁▁▁▁▁▁▁▁▁▁": 2465,
    "▁University": 2466,
    "比较": 2467,
    "▁run": 2468,
    "ision": 2469,
    "▁each": 2470,
    "重点": 2471,
    "▁inf": 2472,
    "ized": 2473,
    "基础": 2474,
    "▁company": 2475,
    "领导": 2476,
    "▁import": 2477,
    "期间": 2478,
    "综合": 2479,
    "lease": 2480,
    "arg": 2481,
    "▁Z": 2482,
    "CWS": 2483,
    "au": 2484,
    "▁techn": 2485,
    "提升": 2486,
    "ee": 2487,
    "▁Pl": 2488,
    "▁health": 2489,
    "▁point": 2490,
    "投资": 2491,
    "▁build": 2492,
    "▁same": 2493,
    "nce": 2494,
    "行为": 2495,
    "ural": 2496,
    "ired": 2497,
    "▁form": 2498,
    "▁Col": 2499,
    "通知": 2500,
    "ple": 2501,
    "过程": 2502,
    "上的": 2503,
    "▁different": 2504,
    "▁cr": 2505,
    "▁project": 2506,
    "参加": 2507,
    "这里": 2508,
    "病例": 2509,
    "政策": 2510,
    "▁[": 2511,
    "提高": 2512,
    "vernment": 2513,
    "ature": 2514,
    "▁data": 2515,
    "及时": 2516,
    "实现": 2517,
    "()": 2518,
    "▁Q": 2519,
    "群众": 2520,
    "▁game": 2521,
    "ined": 2522,
    "▁gener": 2523,
    "ering": 2524,
    "条件": 2525,
    "▁cap": 2526,
    "▁sol": 2527,
    "产业": 2528,
    "岗位": 2529,
    "▁Ex": 2530,
    "机构": 2531,
    "▁adv": 2532,
    "eb": 2533,
    "最后": 2534,
    "▁prof": 2535,
    "▁open": 2536,
    "年的": 2537,
    "son": 2538,
    "ving": 2539,
    "▁post": 2540,
    "ID": 2541,
    "omen": 2542,
    "关系": 2543,
    "▁direct": 2544,
    "ery": 2545,
    "希望": 2546,
    "保障": 2547,
    "ari": 2548,
    "计划": 2549,
    "▁month": 2550,
    "现场": 2551,
    "阅读": 2552,
    "▁iss": 2553,
    "▁Comm": 2554,
    "卫生": 2555,
    "▁She": 2556,
    "▁Con": 2557,
    "erest": 2558,
    "自然": 2559,
    "基本": 2560,
    "容易": 2561,
    "ared": 2562,
    "免费": 2563,
    "▁ann": 2564,
    "▁week": 2565,
    "直接": 2566,
    "全面": 2567,
    "of": 2568,
    "▁dist": 2569,
    "▁really": 2570,
    "▁ob": 2571,
    "ruct": 2572,
    "而且": 2573,
    "app": 2574,
    "行业": 2575,
    "作用": 2576,
    "▁invest": 2577,
    "ploy": 2578,
    "inal": 2579,
    "riend": 2580,
    "检测": 2581,
    "▁going": 2582,
    "by": 2583,
    "家庭": 2584,
    "推荐": 2585,
    "看到": 2586,
    "公众": 2587,
    "me": 2588,
    "▁place": 2589,
    "支持": 2590,
    "▁Te": 2591,
    "按照": 2592,
    "IN": 2593,
    "arn": 2594,
    "ccess": 2595,
    "▁say": 2596,
    "▁resp": 2597,
    "▁product": 2598,
    "▁organ": 2599,
    "质量": 2600,
    "cent": 2601,
    "一样": 2602,
    "▁appro": 2603,
    "br": 2604,
    "有限公司": 2605,
    "orth": 2606,
    "▁law": 2607,
    "▁top": 2608,
    "reen": 2609,
    "▁pass": 2610,
    "▁list": 2611,
    "outh": 2612,
    "坚持": 2613,
    "公安": 2614,
    "▁If": 2615,
    "uro": 2616,
    "▁mov": 2617,
    "合作": 2618,
    "ining": 2619,
    "ustom": 2620,
    "家长": 2621,
    "国际": 2622,
    "有效": 2623,
    "▁Res": 2624,
    "加强": 2625,
    "▁result": 2626,
    "落实": 2627,
    ",“": 2628,
    "▁dep": 2629,
    "▁process": 2630,
    "会议": 2631,
    "风险": 2632,
    "ody": 2633,
    "▁cor": 2634,
    "科技": 2635,
    "▁Cent": 2636,
    "这一": 2637,
    "▁ty": 2638,
    "处理": 2639,
    "ember": 2640,
    "课程": 2641,
    "▁says": 2642,
    "▁rese": 2643,
    "▁writ": 2644,
    "▁stat": 2645,
    "oard": 2646,
    "▁partic": 2647,
    "rist": 2648,
    "sc": 2649,
    "raph": 2650,
    "ense": 2651,
    "积极": 2652,
    "ump": 2653,
    "ission": 2654,
    "iving": 2655,
    "一直": 2656,
    "▁since": 2657,
    "历史": 2658,
    "▁family": 2659,
    "co": 2660,
    "ways": 2661,
    "ator": 2662,
    "▁prot": 2663,
    "▁la": 2664,
    "文章": 2665,
    "ley": 2666,
    "ocial": 2667,
    "编辑": 2668,
    "不断": 2669,
    "分享": 2670,
    "代表": 2671,
    "▁hist": 2672,
    "患者": 2673,
    "科学": 2674,
    "▁cle": 2675,
    "具有": 2676,
    "负责": 2677,
    "▁perform": 2678,
    "有关": 2679,
    "▁sl": 2680,
    "▁against": 2681,
    "作者": 2682,
    "肺炎": 2683,
    "▁US": 2684,
    "▁el": 2685,
    "Ch": 2686,
    "ron": 2687,
    "▁state": 2688,
    "▁second": 2689,
    ",\"": 2690,
    "这是": 2691,
    "成绩": 2692,
    "获得": 2693,
    "ON": 2694,
    "ailable": 2695,
    "事业": 2696,
    "▁expl": 2697,
    "社区": 2698,
    "结果": 2699,
    "▁They": 2700,
    "▁leg": 2701,
    "感染": 2702,
    ":　": 2703,
    "虽然": 2704,
    "▁real": 2705,
    "▁All": 2706,
    "min": 2707,
    "be": 2708,
    "▁main": 2709,
    "▁sk": 2710,
    "不仅": 2711,
    "觉得": 2712,
    "enn": 2713,
    "EN": 2714,
    "▁happ": 2715,
    "帮助": 2716,
    "▁number": 2717,
    "▁lot": 2718,
    "ohn": 2719,
    "小学": 2720,
    "self": 2721,
    "地方": 2722,
    "▁Mar": 2723,
    ")　": 2724,
    "▁pur": 2725,
    "小时": 2726,
    "只有": 2727,
    "ially": 2728,
    "ternational": 2729,
    "▁fact": 2730,
    "培训": 2731,
    "▁Be": 2732,
    "▁Jan": 2733,
    "▁rest": 2734,
    "ling": 2735,
    "ency": 2736,
    "▁How": 2737,
    "医疗": 2738,
    "▁big": 2739,
    "解决": 2740,
    "ior": 2741,
    "就会": 2742,
    "▁▁▁▁▁▁▁▁▁▁▁▁": 2743,
    "▁rece": 2744,
    "▁est": 2745,
    "AR": 2746,
    "ves": 2747,
    "ases": 2748,
    "▁few": 2749,
    "今年": 2750,
    "▁current": 2751,
    "less": 2752,
    "▁pop": 2753,
    "▁allow": 2754,
    "pro": 2755,
    "集团": 2756,
    "ically": 2757,
    "▁i": 2758,
    "毕业": 2759,
    "▁oper": 2760,
    "应该": 2761,
    "我的": 2762,
    "▁next": 2763,
    "▁pat": 2764,
    "▁interest": 2765,
    "gg": 2766,
    "甚至": 2767,
    "uthor": 2768,
    "治疗": 2769,
    "▁/": 2770,
    "一般": 2771,
    "必须": 2772,
    "ury": 2773,
    "▁using": 2774,
    "ration": 2775,
    "不过": 2776,
    "que": 2777,
    "une": 2778,
    "手机": 2779,
    "措施": 2780,
    "继续": 2781,
    "新闻": 2782,
    "努力": 2783,
    "▁poss": 2784,
    "nect": 2785,
    "保护": 2786,
    "教学": 2787,
    "▁incre": 2788,
    "lection": 2789,
    "实施": 2790,
    "err": 2791,
    "▁const": 2792,
    "ording": 2793,
    "ead": 2794,
    "iver": 2795,
    "ird": 2796,
    "▁plan": 2797,
    "ott": 2798,
    "▁fr": 2799,
    "建议": 2800,
    "</": 2801,
    "成功": 2802,
    "▁market": 2803,
    "▁test": 2804,
    "ries": 2805,
    "▁May": 2806,
    "ittle": 2807,
    "宣传": 2808,
    "▁win": 2809,
    "ney": 2810,
    "报告": 2811,
    "htt": 2812,
    "▁head": 2813,
    "来说": 2814,
    "sp": 2815,
    "orld": 2816,
    "ream": 2817,
    "stand": 2818,
    "才能": 2819,
    "ubl": 2820,
    "考生": 2821,
    "▁manag": 2822,
    "▁available": 2823,
    "▁hand": 2824,
    "▁too": 2825,
    "增加": 2826,
    "ober": 2827,
    "实际": 2828,
    "▁come": 2829,
    "med": 2830,
    "ai": 2831,
    "yn": 2832,
    "▁Or": 2833,
    "任何": 2834,
    "以下": 2835,
    "ym": 2836,
    "ote": 2837,
    "▁four": 2838,
    "AT": 2839,
    "conom": 2840,
    "包括": 2841,
    "ES": 2842,
    "▁Go": 2843,
    "▁eas": 2844,
    "人生": 2845,
    "的事": 2846,
    "存在": 2847,
    "保持": 2848,
    "进一步": 2849,
    "▁grow": 2850,
    "uman": 2851,
    "ption": 2852,
    "thing": 2853,
    "▁million": 2854,
    "有一": 2855,
    "安排": 2856,
    "功能": 2857,
    "iron": 2858,
    "▁fac": 2859,
    "创新": 2860,
    "ised": 2861,
    "ains": 2862,
    "ething": 2863,
    "▁dem": 2864,
    "ories": 2865,
    "认为": 2866,
    "▁pos": 2867,
    "不得": 2868,
    "▁another": 2869,
    "上海": 2870,
    "ately": 2871,
    "acy": 2872,
    "检查": 2873,
    "▁experience": 2874,
    "▁offic": 2875,
    "▁country": 2876,
    "rol": 2877,
    "▁power": 2878,
    "图片": 2879,
    "导致": 2880,
    "分析": 2881,
    "ought": 2882,
    "▁small": 2883,
    "公众号": 2884,
    "▁put": 2885,
    "资格": 2886,
    "效果": 2887,
    "未来": 2888,
    "时代": 2889,
    "规划": 2890,
    "por": 2891,
    "▁Man": 2892,
    "▁bro": 2893,
    "▁Co": 2894,
    "因此": 2895,
    "▁name": 2896,
    "▁important": 2897,
    "两个": 2898,
    "ertain": 2899,
    "▁music": 2900,
    "消费": 2901,
    "▁Eng": 2902,
    "▁service": 2903,
    "准备": 2904,
    "▁community": 2905,
    "▁must": 2906,
    "▁quest": 2907,
    "一下": 2908,
    "疫苗": 2909,
    "҈҉҉": 2910,
    "中央": 2911,
    "▁tri": 2912,
    "生命": 2913,
    "esp": 2914,
    "推进": 2915,
    "▁feel": 2916,
    "▁custom": 2917,
    "具体": 2918,
    "运动": 2919,
    "__": 2920,
    "▁eng": 2921,
    "▁keep": 2922,
    "▁without": 2923,
    "▁indust": 2924,
    "\",": 2925,
    "故事": 2926,
    "材料": 2927,
    "▁better": 2928,
    "▁free": 2929,
    "▁effect": 2930,
    "vious": 2931,
    "的小": 2932,
    "ats": 2933,
    "▁recent": 2934,
    "原因": 2935,
    "各种": 2936,
    "▁Can": 2937,
    "ights": 2938,
    "▁ide": 2939,
    "旅游": 2940,
    "ware": 2941,
    "也不": 2942,
    "work": 2943,
    "▁try": 2944,
    "▁There": 2945,
    "分钟": 2946,
    "▁government": 2947,
    "▁things": 2948,
    "▁access": 2949,
    "▁love": 2950,
    "▁working": 2951,
    "AN": 2952,
    "▁always": 2953,
    "▁students": 2954,
    "万元": 2955,
    "icle": 2956,
    "▁stand": 2957,
    "申请": 2958,
    "口罩": 2959,
    "▁On": 2960,
    "咨询": 2961,
    "▁sit": 2962,
    "▁level": 2963,
    "lement": 2964,
    "之间": 2965,
    "”“": 2966,
    "ium": 2967,
    "af": 2968,
    "主任": 2969,
    "ush": 2970,
    "uly": 2971,
    "▁Car": 2972,
    "▁old": 2973,
    "▁To": 2974,
    "▁American": 2975,
    "普通": 2976,
    "父母": 2977,
    "▁local": 2978,
    "媒体": 2979,
    "ization": 2980,
    "建筑": 2981,
    "▁something": 2982,
    "品牌": 2983,
    "osed": 2984,
    "你们": 2985,
    "行动": 2986,
    "▁prom": 2987,
    "▁United": 2988,
    "持续": 2989,
    "par": 2990,
    "ajor": 2991,
    "here": 2992,
    "资料": 2993,
    "▁full": 2994,
    "州市": 2995,
    "ivid": 2996,
    "▁pay": 2997,
    "参与": 2998,
    "他的": 2999,
    "OR": 3000,
    "银行": 3001,
    "\">": 3002,
    "ours": 3003,
    "法律": 3004,
    "▁sing": 3005,
    "arent": 3006,
    "▁turn": 3007,
    "农村": 3008,
    "As": 3009,
    "aut": 3010,
    "▁services": 3011,
    "lex": 3012,
    "▁hard": 3013,
    "oney": 3014,
    "▁success": 3015,
    "ged": 3016,
    "有人": 3017,
    "无法": 3018,
    "▁view": 3019,
    "ured": 3020,
    "来了": 3021,
    "▁cost": 3022,
    "经验": 3023,
    "▁group": 3024,
    "▁never": 3025,
    "▁Rep": 3026,
    "▁return": 3027,
    "▁story": 3028,
    "造成": 3029,
    "▁John": 3030,
    "▁season": 3031,
    "oor": 3032,
    "▁change": 3033,
    "电子": 3034,
    "由于": 3035,
    "只是": 3036,
    "确诊": 3037,
    "▁children": 3038,
    "是否": 3039,
    "itions": 3040,
    "ource": 3041,
    "同学": 3042,
    "▁friend": 3043,
    "▁Pr": 3044,
    "uture": 3045,
    "uck": 3046,
    "▁aff": 3047,
    "销售": 3048,
    "控制": 3049,
    "真的": 3050,
    "指导": 3051,
    "▁water": 3052,
    "▁record": 3053,
    "水平": 3054,
    "开发": 3055,
    "ising": 3056,
    "▁Med": 3057,
    "▁case": 3058,
    "www": 3059,
    "for": 3060,
    "▁Br": 3061,
    "AS": 3062,
    "▁research": 3063,
    "▁belie": 3064,
    "▁elect": 3065,
    "干部": 3066,
    "▁able": 3067,
    "执行": 3068,
    "ified": 3069,
    "aff": 3070,
    "ived": 3071,
    "If": 3072,
    "▁proble": 3073,
    "ify": 3074,
    "▁equ": 3075,
    "我们的": 3076,
    "ider": 3077,
    "ocus": 3078,
    "结合": 3079,
    "年级": 3080,
    "▁Am": 3081,
    "作品": 3082,
    "第三": 3083,
    "ope": 3084,
    "▁▁▁▁▁▁▁": 3085,
    "▁provide": 3086,
    "简单": 3087,
    "汽车": 3088,
    "二维": 3089,
    "▁met": 3090,
    "这么": 3091,
    "决定": 3092,
    "▁bre": 3093,
    "出了": 3094,
    "严重": 3095,
    "ister": 3096,
    "业务": 3097,
    "viron": 3098,
    "▁meet": 3099,
    "二维码": 3100,
    "▁chang": 3101,
    "ourn": 3102,
    "inc": 3103,
    "艺术": 3104,
    "▁today": 3105,
    "▁beh": 3106,
    "aster": 3107,
    "ument": 3108,
    "▁fund": 3109,
    "▁little": 3110,
    "urs": 3111,
    "这样的": 3112,
    "▁got": 3113,
    "最新": 3114,
    "左右": 3115,
    "▁within": 3116,
    "只要": 3117,
    "都会": 3118,
    "▁film": 3119,
    "put": 3120,
    "▁days": 3121,
    "tain": 3122,
    "osp": 3123,
    "ii": 3124,
    "aim": 3125,
    "记者": 3126,
    "▁past": 3127,
    "uary": 3128,
    "▁less": 3129,
    "委员": 3130,
    "超过": 3131,
    "▁expect": 3132,
    "的大": 3133,
    "▁might": 3134,
    "ability": 3135,
    "更加": 3136,
    "ients": 3137,
    "感觉": 3138,
    "org": 3139,
    "目标": 3140,
    "▁visit": 3141,
    "价值": 3142,
    "▁area": 3143,
    "▁Fl": 3144,
    "▁Euro": 3145,
    "▁event": 3146,
    "区域": 3147,
    "urity": 3148,
    "▁At": 3149,
    "介绍": 3150,
    "ateg": 3151,
    "ential": 3152,
    "▁Gr": 3153,
    "方案": 3154,
    "til": 3155,
    "▁York": 3156,
    "ideo": 3157,
    "obal": 3158,
    "▁activ": 3159,
    "都有": 3160,
    "icy": 3161,
    "▁priv": 3162,
    "▁social": 3163,
    "▁Su": 3164,
    "▁Pol": 3165,
    "By": 3166,
    "What": 3167,
    "▁employ": 3168,
    "An": 3169,
    "▁With": 3170,
    "▁present": 3171,
    "▁across": 3172,
    "需求": 3173,
    "▁near": 3174,
    "▁special": 3175,
    "▁Pres": 3176,
    "▁So": 3177,
    "▁air": 3178,
    "ems": 3179,
    "购买": 3180,
    "接受": 3181,
    "不到": 3182,
    "的话": 3183,
    "▁camp": 3184,
    "公告": 3185,
    "Pro": 3186,
    "ask": 3187,
    "gin": 3188,
    "ane": 3189,
    "▁conc": 3190,
    "接种": 3191,
    "职业": 3192,
    "▁Christ": 3193,
    "车辆": 3194,
    "▁proper": 3195,
    "▁addition": 3196,
    "一点": 3197,
    "over": 3198,
    "ele": 3199,
    "side": 3200,
    "优秀": 3201,
    "arge": 3202,
    "▁women": 3203,
    "人才": 3204,
    "正在": 3205,
    "▁making": 3206,
    "▁ask": 3207,
    "oid": 3208,
    "ination": 3209,
    "调整": 3210,
    "范围": 3211,
    "orts": 3212,
    "正常": 3213,
    "iven": 3214,
    "▁city": 3215,
    "▁World": 3216,
    "▁exc": 3217,
    "▁members": 3218,
    "▁National": 3219,
    "办公": 3220,
    "atic": 3221,
    "ball": 3222,
    "为什么": 3223,
    "面试": 3224,
    "▁spe": 3225,
    "专家": 3226,
    "%,": 3227,
    "空间": 3228,
    "即可": 3229,
    "▁profess": 3230,
    "形成": 3231,
    "ales": 3232,
    "ext": 3233,
    "artment": 3234,
    "国内": 3235,
    "ards": 3236,
    "AP": 3237,
    "政治": 3238,
    "ample": 3239,
    "▁School": 3240,
    "ograph": 3241,
    "▁Ass": 3242,
    "He": 3243,
    "▁No": 3244,
    "my": 3245,
    "▁That": 3246,
    "ike": 3247,
    "rict": 3248,
    "疾病": 3249,
    "▁z": 3250,
    "wards": 3251,
    "除了": 3252,
    "利用": 3253,
    "来自": 3254,
    "ev": 3255,
    "duct": 3256,
    "▁Gu": 3257,
    "然后": 3258,
    "atter": 3259,
    "vironment": 3260,
    "确保": 3261,
    "ienc": 3262,
    "症状": 3263,
    "小区": 3264,
    "▁job": 3265,
    "▁major": 3266,
    "▁State": 3267,
    "▁par": 3268,
    "之前": 3269,
    "达到": 3270,
    "▁pract": 3271,
    "▁cho": 3272,
    "▁ben": 3273,
    "▁educ": 3274,
    "ending": 3275,
    "▁Inst": 3276,
    "idd": 3277,
    "▁creat": 3278,
    "▁phot": 3279,
    "▁impro": 3280,
    "▁order": 3281,
    "个月": 3282,
    "▁saf": 3283,
    "别人": 3284,
    "查看": 3285,
    "▁City": 3286,
    "▁protect": 3287,
    "ready": 3288,
    "有的": 3289,
    "eter": 3290,
    "幸福": 3291,
    "经营": 3292,
    "You": 3293,
    "共同": 3294,
    "iam": 3295,
    "▁along": 3296,
    "武汉": 3297,
    "▁move": 3298,
    "▁Min": 3299,
    "ention": 3300,
    "ung": 3301,
    "▁Count": 3302,
    "eral": 3303,
    "▁term": 3304,
    "▁feat": 3305,
    "▁webs": 3306,
    "▁polit": 3307,
    "▁App": 3308,
    "比如": 3309,
    "IS": 3310,
    "▁young": 3311,
    "不可": 3312,
    "lish": 3313,
    "che": 3314,
    "公共": 3315,
    "▁econom": 3316,
    "ians": 3317,
    "妈妈": 3318,
    "▁development": 3319,
    "▁mil": 3320,
    "关键": 3321,
    "▁give": 3322,
    "心理": 3323,
    "▁supp": 3324,
    "How": 3325,
    "真正": 3326,
    "完全": 3327,
    "表现": 3328,
    "经过": 3329,
    "▁called": 3330,
    "一定要": 3331,
    "ably": 3332,
    "▁focus": 3333,
    "wit": 3334,
    "▁:": 3335,
    "ris": 3336,
    "生态": 3337,
    "veral": 3338,
    "工资": 3339,
    "▁orig": 3340,
    "交流": 3341,
    "消息": 3342,
    "ills": 3343,
    "东西": 3344,
    "▁En": 3345,
    "全球": 3346,
    "机会": 3347,
    "▁Europe": 3348,
    "▁Oct": 3349,
    "直播": 3350,
    "得到": 3351,
    "一种": 3352,
    "▁left": 3353,
    "幼儿": 3354,
    "alf": 3355,
    "▁become": 3356,
    "lege": 3357,
    "gether": 3358,
    "▁together": 3359,
    "志愿": 3360,
    "严格": 3361,
    "▁charact": 3362,
    "▁future": 3363,
    "ners": 3364,
    "ows": 3365,
    "招生": 3366,
    "机关": 3367,
    "驾驶": 3368,
    "保险": 3369,
    "For": 3370,
    "▁News": 3371,
    "产生": 3372,
    "go": 3373,
    "面积": 3374,
    "▁rele": 3375,
    "女人": 3376,
    "ials": 3377,
    "▁trad": 3378,
    "▁fore": 3379,
    "来越": 3380,
    "itor": 3381,
    "val": 3382,
    "▁aut": 3383,
    "IC": 3384,
    "违法": 3385,
    "出来": 3386,
    "ended": 3387,
    "pril": 3388,
    "不少": 3389,
    "▁Ed": 3390,
    "ances": 3391,
    "IT": 3392,
    "隔离": 3393,
    "阶段": 3394,
    "ored": 3395,
    "rop": 3396,
    "▁sure": 3397,
    "▁history": 3398,
    "越来越": 3399,
    "ively": 3400,
    "▁applic": 3401,
    "yle": 3402,
    "加入": 3403,
    "▁far": 3404,
    "有些": 3405,
    "aces": 3406,
    "来看": 3407,
    "):": 3408,
    "推动": 3409,
    "↓↓": 3410,
    "iting": 3411,
    "▁online": 3412,
    "多少": 3413,
    "book": 3414,
    "▁include": 3415,
    "▁opport": 3416,
    "▁commun": 3417,
    "erence": 3418,
    "让人": 3419,
    "全部": 3420,
    "yl": 3421,
    "思想": 3422,
    "党员": 3423,
    "▁away": 3424,
    "resent": 3425,
    "ique": 3426,
    "rem": 3427,
    "▁until": 3428,
    "▁let": 3429,
    "▁connect": 3430,
    "▁Af": 3431,
    "随着": 3432,
    "▁Bro": 3433,
    "rap": 3434,
    "属于": 3435,
    "▁news": 3436,
    "▁▁▁▁▁▁": 3437,
    "▁line": 3438,
    "ony": 3439,
    "拥有": 3440,
    "系列": 3441,
    "▁non": 3442,
    "▁based": 3443,
    "ipp": 3444,
    "▁series": 3445,
    "▁opt": 3446,
    "anies": 3447,
    "▁lik": 3448,
    "变化": 3449,
    "▁March": 3450,
    "里的": 3451,
    "也会": 3452,
    "▁mult": 3453,
    "收入": 3454,
    "AL": 3455,
    "itive": 3456,
    "客户": 3457,
    "英语": 3458,
    "ey": 3459,
    "▁why": 3460,
    "任务": 3461,
    "想要": 3462,
    "力量": 3463,
    "▁X": 3464,
    "▁dev": 3465,
    "主动": 3466,
    "我国": 3467,
    "▁industry": 3468,
    "▁Aust": 3469,
    "ones": 3470,
    "▁January": 3471,
    "”　": 3472,
    "▁several": 3473,
    "▁already": 3474,
    "之一": 3475,
    "▁announ": 3476,
    "回复": 3477,
    "▁cond": 3478,
    "新冠肺炎": 3479,
    "▁early": 3480,
    "集中": 3481,
    "文明": 3482,
    "▁Off": 3483,
    "身份": 3484,
    "▁Cal": 3485,
    "joy": 3486,
    "调查": 3487,
    "▁site": 3488,
    "网友": 3489,
    "▁States": 3490,
    "以后": 3491,
    "▁net": 3492,
    "▁South": 3493,
    "Ex": 3494,
    "▁times": 3495,
    "▁Ab": 3496,
    "ED": 3497,
    "▁author": 3498,
    "ene": 3499,
    "　(": 3500,
    "减少": 3501,
    "ots": 3502,
    "▁understand": 3503,
    "意识": 3504,
    "',": 3505,
    "主义": 3506,
    "▁Aug": 3507,
    "中华": 3508,
    "return": 3509,
    "▁often": 3510,
    "▁Mc": 3511,
    "小编": 3512,
    "确定": 3513,
    "▁Im": 3514,
    "ds": 3515,
    "▁cult": 3516,
    "abor": 3517,
    "建立": 3518,
    "pos": 3519,
    "utions": 3520,
    "irl": 3521,
    "imate": 3522,
    "ources": 3523,
    "欢迎": 3524,
    "▁ve": 3525,
    "ividual": 3526,
    "ster": 3527,
    "道路": 3528,
    "ched": 3529,
    "▁food": 3530,
    "状态": 3531,
    "办理": 3532,
    "接触": 3533,
    "删除": 3534,
    "ada": 3535,
    "▁short": 3536,
    "人们": 3537,
    "leg": 3538,
    "制度": 3539,
    "▁following": 3540,
    "也有": 3541,
    "最高": 3542,
    "传统": 3543,
    "raw": 3544,
    "AC": 3545,
    "新的": 3546,
    "ray": 3547,
    "经常": 3548,
    "▁vers": 3549,
    "符合": 3550,
    "reet": 3551,
    "▁known": 3552,
    "rew": 3553,
    "▁create": 3554,
    "ued": 3555,
    "not": 3556,
    "稳定": 3557,
    "▁human": 3558,
    "操作": 3559,
    "ift": 3560,
    "aring": 3561,
    "高考": 3562,
    "就业": 3563,
    "居民": 3564,
    "广大": 3565,
    "ger": 3566,
    "▁dri": 3567,
    "▁pot": 3568,
    "员工": 3569,
    "▁five": 3570,
    "儿童": 3571,
    "版权": 3572,
    "oman": 3573,
    "受到": 3574,
    "ails": 3575,
    "团队": 3576,
    "▁money": 3577,
    "▁looking": 3578,
    "行政": 3579,
    "以来": 3580,
    "领域": 3581,
    "▁invol": 3582,
    "▁course": 3583,
    "▁live": 3584,
    "back": 3585,
    "▁compet": 3586,
    "明显": 3587,
    "▁North": 3588,
    "而是": 3589,
    "食品": 3590,
    "设备": 3591,
    "ids": 3592,
    "公开": 3593,
    "▁Sept": 3594,
    "Com": 3595,
    "ole": 3596,
    "高校": 3597,
    "改革": 3598,
    "▁learn": 3599,
    "▁occ": 3600,
    "▁April": 3601,
    "▁possible": 3602,
    "de": 3603,
    "ulation": 3604,
    "Al": 3605,
    "roll": 3606,
    "地址": 3607,
    "采用": 3608,
    "urther": 3609,
    "comm": 3610,
    "▁What": 3611,
    "raft": 3612,
    "▁chall": 3613,
    "hers": 3614,
    "取得": 3615,
    "登记": 3616,
    "cri": 3617,
    "明确": 3618,
    "▁ident": 3619,
    "utes": 3620,
    "▁media": 3621,
    "高速": 3622,
    "▁having": 3623,
    "cember": 3624,
    "▁ever": 3625,
    "▁jo": 3626,
    "ml": 3627,
    "▁June": 3628,
    "year": 3629,
    "显示": 3630,
    "ovember": 3631,
    "证明": 3632,
    "面对": 3633,
    "▁won": 3634,
    "isc": 3635,
    "▁percent": 3636,
    "广东": 3637,
    "无论": 3638,
    "医学": 3639,
    "RE": 3640,
    "特色": 3641,
    "▁came": 3642,
    "那些": 3643,
    "▁value": 3644,
    "山东": 3645,
    "▁di": 3646,
    "最终": 3647,
    "▁website": 3648,
    "增长": 3649,
    "▁kind": 3650,
    "▁Dep": 3651,
    "▁study": 3652,
    "打造": 3653,
    "▁large": 3654,
    "elling": 3655,
    "sel": 3656,
    "当时": 3657,
    "ape": 3658,
    "ethod": 3659,
    "适合": 3660,
    "提醒": 3661,
    "▁President": 3662,
    "▁others": 3663,
    "应用": 3664,
    "▁later": 3665,
    "▁key": 3666,
    "过程中": 3667,
    "避免": 3668,
    "正式": 3669,
    "亿元": 3670,
    "丰富": 3671,
    "下来": 3672,
    "工作人员": 3673,
    "▁Feb": 3674,
    "促进": 3675,
    "方向": 3676,
    "▁account": 3677,
    "▁war": 3678,
    "模式": 3679,
    "▁treat": 3680,
    "aper": 3681,
    "新增": 3682,
    "҈҉҉҉": 3683,
    "▁July": 3684,
    "联合": 3685,
    "▁Sec": 3686,
    "▁Cont": 3687,
    "▁hold": 3688,
    "▁house": 3689,
    "▁deal": 3690,
    "There": 3691,
    "▁lim": 3692,
    "▁among": 3693,
    "ief": 3694,
    "观察": 3695,
    "▁ca": 3696,
    "Con": 3697,
    "深入": 3698,
    "劳动": 3699,
    "▁review": 3700,
    "相信": 3701,
    "▁individual": 3702,
    "充分": 3703,
    "On": 3704,
    "▁companies": 3705,
    "hel": 3706,
    "▁light": 3707,
    "▁function": 3708,
    "verage": 3709,
    "▁thought": 3710,
    "▁htt": 3711,
    "告诉": 3712,
    "ctor": 3713,
    "▁ris": 3714,
    "▁Serv": 3715,
    "iday": 3716,
    "出的": 3717,
    "wh": 3718,
    "▁bas": 3719,
    "成了": 3720,
    "▁makes": 3721,
    "医生": 3722,
    "用户": 3723,
    "urch": 3724,
    "ilt": 3725,
    "▁mar": 3726,
    "▁benef": 3727,
    "街道": 3728,
    "金融": 3729,
    "gr": 3730,
    "Ph": 3731,
    "▁#": 3732,
    "犯罪": 3733,
    "iod": 3734,
    "most": 3735,
    "学历": 3736,
    "保证": 3737,
    "iol": 3738,
    "▁field": 3739,
    "(\"": 3740,
    "并且": 3741,
    "play": 3742,
    "▁men": 3743,
    "▁technology": 3744,
    "▁Har": 3745,
    "new": 3746,
    "▁Ge": 3747,
    "▁dr": 3748,
    "▁offer": 3749,
    "time": 3750,
    "▁strong": 3751,
    "▁took": 3752,
    "▁didn": 3753,
    "▁Em": 3754,
    "▁told": 3755,
    "But": 3756,
    "▁@": 3757,
    "如此": 3758,
    "形式": 3759,
    "load": 3760,
    "fect": 3761,
    "▁larg": 3762,
    "▁publ": 3763,
    "uff": 3764,
    "年轻": 3765,
    "▁needs": 3766,
    "ST": 3767,
    "快乐": 3768,
    "▁night": 3769,
    "是一个": 3770,
    "针对": 3771,
    "aps": 3772,
    "▁anal": 3773,
    "ogn": 3774,
    "▁Will": 3775,
    "▁enjoy": 3776,
    "▁room": 3777,
    "▁Gl": 3778,
    "统一": 3779,
    "成长": 3780,
    "如有": 3781,
    "▁comes": 3782,
    "感情": 3783,
    "的情况": 3784,
    "▁thing": 3785,
    "▁mater": 3786,
    "新型": 3787,
    "做到": 3788,
    "线上": 3789,
    "▁months": 3790,
    "ma": 3791,
    "▁mean": 3792,
    "过去": 3793,
    "▁products": 3794,
    "说明": 3795,
    "aken": 3796,
    "▁self": 3797,
    "rain": 3798,
    "的问题": 3799,
    "体验": 3800,
    "办法": 3801,
    "是在": 3802,
    "培养": 3803,
    "unch": 3804,
    "监督": 3805,
    "▁personal": 3806,
    "▁building": 3807,
    "习惯": 3808,
    "改变": 3809,
    "长期": 3810,
    "现代": 3811,
    "uf": 3812,
    "▁clear": 3813,
    "▁bring": 3814,
    "ips": 3815,
    "earch": 3816,
    "▁started": 3817,
    "▁Dr": 3818,
    "ators": 3819,
    "立即": 3820,
    "ilities": 3821,
    "now": 3822,
    "提前": 3823,
    "主题": 3824,
    "恢复": 3825,
    "结束": 3826,
    "idence": 3827,
    "施工": 3828,
    "▁control": 3829,
    "▁When": 3830,
    "审核": 3831,
    "▁video": 3832,
    "许多": 3833,
    "认真": 3834,
    "▁Art": 3835,
    "cer": 3836,
    "目的": 3837,
    "ival": 3838,
    "ches": 3839,
    "Sh": 3840,
    "off": 3841,
    "快速": 3842,
    "To": 3843,
    "▁hig": 3844,
    "ained": 3845,
    "▁Park": 3846,
    "reg": 3847,
    "▁Ag": 3848,
    "ournal": 3849,
    "▁Me": 3850,
    "itle": 3851,
    "▁means": 3852,
    "▁Part": 3853,
    "理解": 3854,
    "分别": 3855,
    "▁least": 3856,
    "只能": 3857,
    "ler": 3858,
    "irm": 3859,
    "▁song": 3860,
    "▁talk": 3861,
    "当地": 3862,
    "ides": 3863,
    "▁side": 3864,
    "实验": 3865,
    "▁enough": 3866,
    "日本": 3867,
    "▁sum": 3868,
    "sw": 3869,
    "中学": 3870,
    "vert": 3871,
    "游戏": 3872,
    "▁particular": 3873,
    "▁pain": 3874,
    "就能": 3875,
    "当然": 3876,
    "ana": 3877,
    "资金": 3878,
    "本文": 3879,
    "农业": 3880,
    "Ar": 3881,
    "▁December": 3882,
    "开放": 3883,
    "识别": 3884,
    "▁et": 3885,
    "▁November": 3886,
    "传播": 3887,
    "性的": 3888,
    "▁certain": 3889,
    "▁October": 3890,
    "就可以": 3891,
    "▁Comp": 3892,
    "nov": 3893,
    "AM": 3894,
    "▁final": 3895,
    "▁CO": 3896,
    "set": 3897,
    "ze": 3898,
    "▁bo": 3899,
    "head": 3900,
    "ither": 3901,
    "▁tem": 3902,
    "▁doc": 3903,
    "▁done": 3904,
    "▁War": 3905,
    "年龄": 3906,
    "▁wr": 3907,
    "体系": 3908,
    "▁mom": 3909,
    "▁tax": 3910,
    "When": 3911,
    "对方": 3912,
    "And": 3913,
    "▁though": 3914,
    "先生": 3915,
    "▁quality": 3916,
    "▁ener": 3917,
    "ison": 3918,
    "▁vari": 3919,
    "采取": 3920,
    "规范": 3921,
    "opy": 3922,
    "▁tre": 3923,
    "ament": 3924,
    "▁environment": 3925,
    "lu": 3926,
    "在线": 3927,
    "依法": 3928,
    "ancial": 3929,
    "illed": 3930,
    "▁given": 3931,
    "智能": 3932,
    "▁September": 3933,
    "▁games": 3934,
    "▁One": 3935,
    "▁appear": 3936,
    "▁example": 3937,
    "irc": 3938,
    "数学": 3939,
    "并不": 3940,
    "▁claim": 3941,
    "工作的": 3942,
    "▁County": 3943,
    "▁Health": 3944,
    "网上": 3945,
    "面的": 3946,
    "crib": 3947,
    "▁enc": 3948,
    "▁deb": 3949,
    "▁Center": 3950,
    "▁private": 3951,
    "▁seen": 3952,
    "▁ant": 3953,
    "▁vol": 3954,
    "公布": 3955,
    "▁doesn": 3956,
    "结构": 3957,
    "▁crit": 3958,
    "▁role": 3959,
    "▁init": 3960,
    "福利": 3961,
    "每个": 3962,
    "青年": 3963,
    "angu": 3964,
    "▁comb": 3965,
    "▁var": 3966,
    "侵权": 3967,
    "▁tot": 3968,
    "一切": 3969,
    "▁space": 3970,
    "电视": 3971,
    "中医": 3972,
    "法院": 3973,
    "▁West": 3974,
    "▁land": 3975,
    "▁happen": 3976,
    "ounc": 3977,
    "New": 3978,
    "电影": 3979,
    "▁America": 3980,
    "尤其": 3981,
    "▁Bar": 3982,
    "ests": 3983,
    "▁issues": 3984,
    "room": 3985,
    "体育": 3986,
    "遇到": 3987,
    "▁national": 3988,
    "▁once": 3989,
    "ibr": 3990,
    "▁type": 3991,
    "一个人": 3992,
    "▁ens": 3993,
    "▁fav": 3994,
    "皮肤": 3995,
    "很多人": 3996,
    "▁share": 3997,
    "计算": 3998,
    "都不": 3999,
    "▁doing": 4000,
    "▁August": 4001,
    "后的": 4002,
    "▁Afric": 4003,
    "▁House": 4004,
    "经历": 4005,
    "▁Act": 4006,
    "参考": 4007,
    "困难": 4008,
    "▁My": 4009,
    "▁ago": 4010,
    "一天": 4011,
    "('": 4012,
    "igital": 4013,
    "▁<": 4014,
    "▁Stud": 4015,
    "▁Par": 4016,
    "精彩": 4017,
    "营养": 4018,
    "umb": 4019,
    "ruary": 4020,
    "ilar": 4021,
    "▁aud": 4022,
    "意见": 4023,
    "▁redu": 4024,
    "aur": 4025,
    "▁press": 4026,
    "▁stop": 4027,
    "▁Cor": 4028,
    "都在": 4029,
    "▁content": 4030,
    "minist": 4031,
    "▁discuss": 4032,
    "▁low": 4033,
    "确诊病例": 4034,
    "▁fre": 4035,
    "核心": 4036,
    "▁relations": 4037,
    "▁former": 4038,
    "▁complet": 4039,
    "享受": 4040,
    "▁super": 4041,
    "▁require": 4042,
    "oon": 4043,
    "Re": 4044,
    "ino": 4045,
    "男人": 4046,
    "支付": 4047,
    "elt": 4048,
    "right": 4049,
    "孩子的": 4050,
    "ham": 4051,
    "防护": 4052,
    "▁port": 4053,
    "天气": 4054,
    "arget": 4055,
    "程序": 4056,
    "十分": 4057,
    "▁due": 4058,
    "▁address": 4059,
    "▁page": 4060,
    "压力": 4061,
    "▁getting": 4062,
    "民族": 4063,
    "▁track": 4064,
    "音乐": 4065,
    "▁impact": 4066,
    "▁works": 4067,
    "一年": 4068,
    "商业": 4069,
    "距离": 4070,
    "import": 4071,
    "优势": 4072,
    "▁specific": 4073,
    "工业": 4074,
    "gress": 4075,
    "民警": 4076,
    "▁Dav": 4077,
    "▁death": 4078,
    "食物": 4079,
    "▁UK": 4080,
    "aid": 4081,
    "Ad": 4082,
    "ibility": 4083,
    "▁single": 4084,
    "▁six": 4085,
    "设施": 4086,
    "发挥": 4087,
    "bl": 4088,
    "▁Austral": 4089,
    "长按": 4090,
    "anks": 4091,
    "ecut": 4092,
    "▁pri": 4093,
    "::": 4094,
    "ington": 4095,
    "死亡": 4096,
    "位置": 4097,
    "tr": 4098,
    "▁sound": 4099,
    "ault": 4100,
    "ET": 4101,
    "报考": 4102,
    "Un": 4103,
    "成立": 4104,
    "▁went": 4105,
    "▁check": 4106,
    "itted": 4107,
    "▁according": 4108,
    "▁Do": 4109,
    "▁contact": 4110,
    "训练": 4111,
    "nes": 4112,
    "▁yet": 4113,
    "▁Brit": 4114,
    "key": 4115,
    "emic": 4116,
    "▁buy": 4117,
    "▁respons": 4118,
    "家人": 4119,
    "▁third": 4120,
    "大量": 4121,
    "ocr": 4122,
    "ille": 4123,
    "近平": 4124,
    "fort": 4125,
    "满足": 4126,
    "rodu": 4127,
    "▁begin": 4128,
    "ades": 4129,
    "考虑": 4130,
    "身边": 4131,
    "委员会": 4132,
    "机制": 4133,
    "核酸": 4134,
    "习近平": 4135,
    "的时间": 4136,
    "费用": 4137,
    "▁Mark": 4138,
    "真实": 4139,
    "引起": 4140,
    "重大": 4141,
    "bum": 4142,
    "原则": 4143,
    "elebr": 4144,
    "▁represent": 4145,
    "urg": 4146,
    "交易": 4147,
    "chie": 4148,
    "▁energy": 4149,
    "文字": 4150,
    "▁Sm": 4151,
    "认识": 4152,
    "ondon": 4153,
    "ague": 4154,
    "录取": 4155,
    "();": 4156,
    "atur": 4157,
    "used": 4158,
    "▁El": 4159,
    "的高": 4160,
    "日常": 4161,
    "▁body": 4162,
    "▁further": 4163,
    "EC": 4164,
    "女性": 4165,
    "都能": 4166,
    "▁whether": 4167,
    "asing": 4168,
    "市民": 4169,
    "事故": 4170,
    "▁host": 4171,
    "▁Qu": 4172,
    "如果你": 4173,
    "答案": 4174,
    "▁beaut": 4175,
    "学会": 4176,
    "▁bit": 4177,
    "▁step": 4178,
    "党委": 4179,
    "atest": 4180,
    "▁These": 4181,
    "特殊": 4182,
    "cast": 4183,
    "▁foot": 4184,
    "iter": 4185,
    "下的": 4186,
    "US": 4187,
    "▁typ": 4188,
    "河南": 4189,
    "领取": 4190,
    "湖北": 4191,
    "下午": 4192,
    "添加": 4193,
    "让你": 4194,
    "▁international": 4195,
    "https": 4196,
    "▁However": 4197,
    "lin": 4198,
    "整个": 4199,
    "▁continue": 4200,
    "lete": 4201,
    "如下": 4202,
    "▁period": 4203,
    "▁signific": 4204,
    "fer": 4205,
    "aul": 4206,
    "▁leaders": 4207,
    "▁coll": 4208,
    "ouncil": 4209,
    "▁By": 4210,
    "▁true": 4211,
    "aign": 4212,
    "▁hours": 4213,
    "▁Che": 4214,
    "增强": 4215,
    "深圳": 4216,
    "规模": 4217,
    "▁cou": 4218,
    "add": 4219,
    "召开": 4220,
    "irt": 4221,
    "ends": 4222,
    "▁range": 4223,
    "ociety": 4224,
    "日起": 4225,
    "▁His": 4226,
    "adu": 4227,
    "BC": 4228,
    "cy": 4229,
    "幼儿园": 4230,
    "合同": 4231,
    "▁Trump": 4232,
    "▁Her": 4233,
    "开学": 4234,
    "▁age": 4235,
    "icro": 4236,
    "技能": 4237,
    "▁quick": 4238,
    "感谢": 4239,
    "累计": 4240,
    "▁Russ": 4241,
    "oe": 4242,
    "▁problem": 4243,
    "http": 4244,
    "▁added": 4245,
    "降低": 4246,
    "alt": 4247,
    "▁Reg": 4248,
    "▁tell": 4249,
    "她的": 4250,
    "▁parent": 4251,
    "提出": 4252,
    "各地": 4253,
    "****": 4254,
    "看看": 4255,
    "ruction": 4256,
    "实践": 4257,
    "▁Cour": 4258,
    "▁upd": 4259,
    "▁February": 4260,
    "▁staff": 4261,
    "▁global": 4262,
    "▁travel": 4263,
    "值得": 4264,
    "ule": 4265,
    "生物": 4266,
    "▁rights": 4267,
    "▁events": 4268,
    "ama": 4269,
    "▁performance": 4270,
    "▁previous": 4271,
    "人数": 4272,
    "atural": 4273,
    "apt": 4274,
    "▁half": 4275,
    "数字": 4276,
    "场所": 4277,
    "rest": 4278,
    "ecess": 4279,
    "mit": 4280,
    "智慧": 4281,
    "olution": 4282,
    "正确": 4283,
    "▁particip": 4284,
    "掌握": 4285,
    "会有": 4286,
    "配合": 4287,
    "▁heart": 4288,
    "▁Pe": 4289,
    "制作": 4290,
    "的重要": 4291,
    "消毒": 4292,
    "▁member": 4293,
    "ecially": 4294,
    "error": 4295,
    "▁action": 4296,
    "though": 4297,
    "样的": 4298,
    "高中": 4299,
    "agn": 4300,
    "atform": 4301,
    "▁miss": 4302,
    "ried": 4303,
    "事情": 4304,
    "▁mess": 4305,
    "ees": 4306,
    "地点": 4307,
    "onse": 4308,
    "动车": 4309,
    "clus": 4310,
    "冠状": 4311,
    "记录": 4312,
    "▁actually": 4313,
    "设置": 4314,
    "era": 4315,
    "▁International": 4316,
    "土地": 4317,
    "▁areas": 4318,
    "涉及": 4319,
    "声明": 4320,
    "▁esp": 4321,
    "▁wind": 4322,
    "▁education": 4323,
    "▁Rec": 4324,
    "HE": 4325,
    "rug": 4326,
    "一位": 4327,
    "▁Per": 4328,
    "完善": 4329,
    "测试": 4330,
    "年度": 4331,
    "uk": 4332,
    "aged": 4333,
    "▁Not": 4334,
    "▁contrib": 4335,
    "另外": 4336,
    "运营": 4337,
    "▁taking": 4338,
    "ald": 4339,
    "在看": 4340,
    "▁cut": 4341,
    "▁break": 4342,
    "应急": 4343,
    "▁Mr": 4344,
    "▁mot": 4345,
    "今日": 4346,
    "▁career": 4347,
    "▁below": 4348,
    "用于": 4349,
    "整体": 4350,
    "▁Law": 4351,
    "hern": 4352,
    "▁question": 4353,
    "▁meas": 4354,
    "多的": 4355,
    "优惠": 4356,
    "coming": 4357,
    "hib": 4358,
    "作业": 4359,
    "▁After": 4360,
    "▁mind": 4361,
    "近日": 4362,
    "本次": 4363,
    "▁hom": 4364,
    "ett": 4365,
    "▁reason": 4366,
    "Cl": 4367,
    "iences": 4368,
    "▁security": 4369,
    "▁famil": 4370,
    "乡村": 4371,
    "ogle": 4372,
    "ederal": 4373,
    "▁Our": 4374,
    "部署": 4375,
    "理财": 4376,
    "▁easy": 4377,
    "预防": 4378,
    "▁office": 4379,
    "心的": 4380,
    "监管": 4381,
    "▁hot": 4382,
    "oph": 4383,
    "▁sent": 4384,
    "▁sw": 4385,
    "▁lo": 4386,
    "酒店": 4387,
    "回家": 4388,
    "▁fall": 4389,
    "▁president": 4390,
    "▁Associ": 4391,
    "ensive": 4392,
    "日报": 4393,
    "时期": 4394,
    "na": 4395,
    "aching": 4396,
    "公里": 4397,
    "▁watch": 4398,
    "请联系": 4399,
    "ently": 4400,
    "▁held": 4401,
    "amed": 4402,
    "eed": 4403,
    "官方": 4404,
    "程度": 4405,
    "最近": 4406,
    "总是": 4407,
    "冠状病毒": 4408,
    "情绪": 4409,
    "▁Mich": 4410,
    "强化": 4411,
    "ender": 4412,
    "▁character": 4413,
    "▁improve": 4414,
    "▁results": 4415,
    "爱情": 4416,
    "lev": 4417,
    "▁soft": 4418,
    "str": 4419,
    "▁countries": 4420,
    "eal": 4421,
    "方便": 4422,
    "自身": 4423,
    "▁Direct": 4424,
    "位于": 4425,
    "ops": 4426,
    "语文": 4427,
    "ume": 4428,
    "每日": 4429,
    "▁shows": 4430,
    "老人": 4431,
    "最大": 4432,
    "ky": 4433,
    "提示": 4434,
    "浙江": 4435,
    "的心": 4436,
    "ully": 4437,
    "▁High": 4438,
    "▁forward": 4439,
    "aging": 4440,
    "更是": 4441,
    "▁London": 4442,
    "▁close": 4443,
    "垃圾": 4444,
    "▁estab": 4445,
    "▁collect": 4446,
    "epend": 4447,
    "▁features": 4448,
    "城区": 4449,
    "icles": 4450,
    "这次": 4451,
    "div": 4452,
    "意义": 4453,
    "共产": 4454,
    "如今": 4455,
    "毕业生": 4456,
    "itte": 4457,
    "ux": 4458,
    "变得": 4459,
    "▁recogn": 4460,
    "▁taken": 4461,
    "OS": 4462,
    "也可以": 4463,
    "▁Net": 4464,
    "有了": 4465,
    "ges": 4466,
    "▁face": 4467,
    "ores": 4468,
    "▁court": 4469,
    "带来": 4470,
    "证书": 4471,
    "ental": 4472,
    "With": 4473,
    "icult": 4474,
    "selves": 4475,
    "人体": 4476,
    "▁viol": 4477,
    "▁significant": 4478,
    "▁perfect": 4479,
    "ites": 4480,
    "经典": 4481,
    "▁exist": 4482,
    "uild": 4483,
    "转载": 4484,
    "hold": 4485,
    "▁popular": 4486,
    "基地": 4487,
    "▁management": 4488,
    "ules": 4489,
    "▁wa": 4490,
    "▁pack": 4491,
    "不好": 4492,
    "▁text": 4493,
    "acc": 4494,
    "ging": 4495,
    "augh": 4496,
    "指挥": 4497,
    "▁phys": 4498,
    "ided": 4499,
    "▁India": 4500,
    "▁issue": 4501,
    "▁likely": 4502,
    "come": 4503,
    "uge": 4504,
    "based": 4505,
    "不知道": 4506,
    "▁points": 4507,
    "▁front": 4508,
    "IP": 4509,
    "▁received": 4510,
    "▁Department": 4511,
    "在家": 4512,
    "su": 4513,
    "ship": 4514,
    "▁political": 4515,
    "网站": 4516,
    "上午": 4517,
    "▁TV": 4518,
    "arter": 4519,
    "ael": 4520,
    "▁attack": 4521,
    "▁method": 4522,
    "▁intern": 4523,
    "▁almost": 4524,
    "他们的": 4525,
    "istic": 4526,
    "ises": 4527,
    "▁everything": 4528,
    "uation": 4529,
    "▁achie": 4530,
    "▁believe": 4531,
    "▁common": 4532,
    "ification": 4533,
    "不管": 4534,
    "合理": 4535,
    "▁China": 4536,
    "防疫": 4537,
    "▁policy": 4538,
    "▁install": 4539,
    "成员": 4540,
    "年来": 4541,
    "iforn": 4542,
    "empt": 4543,
    "▁players": 4544,
    "合格": 4545,
    "▁Don": 4546,
    "首先": 4547,
    "名单": 4548,
    "▁stay": 4549,
    "Tr": 4550,
    "cont": 4551,
    "战略": 4552,
    "fl": 4553,
    "▁hon": 4554,
    "itional": 4555,
    "face": 4556,
    "到底": 4557,
    "part": 4558,
    "▁Ang": 4559,
    "全市": 4560,
    "成本": 4561,
    "ires": 4562,
    "▁behind": 4563,
    "▁Just": 4564,
    "yd": 4565,
    "▁coming": 4566,
    "ospital": 4567,
    "▁clos": 4568,
    "母亲": 4569,
    "▁Day": 4570,
    "办公室": 4571,
    "消防": 4572,
    "ception": 4573,
    "事件": 4574,
    "cle": 4575,
    "bor": 4576,
    "hing": 4577,
    "往往": 4578,
    "ructure": 4579,
    "运输": 4580,
    "▁various": 4581,
    "联网": 4582,
    "▁entire": 4583,
    "动物": 4584,
    "▁currently": 4585,
    "▁tool": 4586,
    "职工": 4587,
    "的工作": 4588,
    "永远": 4589,
    "各类": 4590,
    "儿子": 4591,
    "江苏": 4592,
    "▁hit": 4593,
    "是一种": 4594,
    "▁Int": 4595,
    "pre": 4596,
    "▁sugg": 4597,
    "后来": 4598,
    "所在": 4599,
    "CO": 4600,
    "▁object": 4601,
    "报道": 4602,
    "AD": 4603,
    "强调": 4604,
    "此次": 4605,
    "▁dou": 4606,
    "▁training": 4607,
    "aced": 4608,
    "atory": 4609,
    "▁More": 4610,
    "哪些": 4611,
    "各项": 4612,
    "▁position": 4613,
    "▁Sch": 4614,
    "预约": 4615,
    "▁offers": 4616,
    "本科": 4617,
    "再次": 4618,
    "iddle": 4619,
    "itary": 4620,
    "一线": 4621,
    "景区": 4622,
    "idge": 4623,
    "▁God": 4624,
    "根本": 4625,
    "aily": 4626,
    "▁created": 4627,
    "的事情": 4628,
    "公安局": 4629,
    "▁relationship": 4630,
    "下方": 4631,
    "itute": 4632,
    "▁especially": 4633,
    "uel": 4634,
    "▁San": 4635,
    "扫码": 4636,
    "aker": 4637,
    "EO": 4638,
    "▁production": 4639,
    "ground": 4640,
    "▁prob": 4641,
    "▁price": 4642,
    "▁tour": 4643,
    "▁op": 4644,
    "自治": 4645,
    "ifornia": 4646,
    "公路": 4647,
    "自由": 4648,
    "▁model": 4649,
    "▁above": 4650,
    "▁Mon": 4651,
    "ledge": 4652,
    "▁stre": 4653,
    "▁whole": 4654,
    "▁cred": 4655,
    "肯定": 4656,
    "不用": 4657,
    "▁fail": 4658,
    "维护": 4659,
    "出行": 4660,
    "▁Tra": 4661,
    "▁friends": 4662,
    "广告": 4663,
    "▁original": 4664,
    "几个": 4665,
    "oo": 4666,
    "案件": 4667,
    "▁agre": 4668,
    "▁article": 4669,
    "▁repl": 4670,
    "▁Ser": 4671,
    "▁living": 4672,
    "▁lives": 4673,
    "委会": 4674,
    "找到": 4675,
    "▁became": 4676,
    "一名": 4677,
    "进行了": 4678,
    "引导": 4679,
    "▁Dis": 4680,
    "ication": 4681,
    "iction": 4682,
    "照片": 4683,
    "▁version": 4684,
    "自我": 4685,
    "ran": 4686,
    "ype": 4687,
    "sy": 4688,
    "配图": 4689,
    "▁recently": 4690,
    "▁investig": 4691,
    "养老": 4692,
    "agement": 4693,
    "党的": 4694,
    "应当": 4695,
    "unt": 4696,
    "▁release": 4697,
    "专项": 4698,
    "大多": 4699,
    "cial": 4700,
    "oved": 4701,
    "▁provides": 4702,
    "校园": 4703,
    "▁campaign": 4704,
    "▁trying": 4705,
    "核酸检测": 4706,
    "▁walk": 4707,
    "useum": 4708,
    "▁total": 4709,
    "▁concern": 4710,
    "▁ep": 4711,
    "▁engine": 4712,
    "待遇": 4713,
    "▁pick": 4714,
    "All": 4715,
    "　“": 4716,
    "新型冠状病毒": 4717,
    "▁road": 4718,
    "▁bar": 4719,
    "▁police": 4720,
    "▁assist": 4721,
    "▁board": 4722,
    "▁celebr": 4723,
    "anguage": 4724,
    "▁amount": 4725,
    "沟通": 4726,
    "▁Sen": 4727,
    "下载": 4728,
    "理论": 4729,
    "▁financial": 4730,
    "公园": 4731,
    "oto": 4732,
    "文件": 4733,
    "▁worked": 4734,
    "▁consider": 4735,
    "▁seem": 4736,
    "▁album": 4737,
    "笔试": 4738,
    "句话": 4739,
    "基层": 4740,
    "千万": 4741,
    "▁includes": 4742,
    "iet": 4743,
    "▁ey": 4744,
    "对象": 4745,
    "▁else": 4746,
    "▁dom": 4747,
    "▁Des": 4748,
    "▁latest": 4749,
    "▁announced": 4750,
    "ams": 4751,
    "▁idea": 4752,
    "▁gen": 4753,
    "▁Fin": 4754,
    "三个": 4755,
    "VID": 4756,
    "▁Of": 4757,
    "mod": 4758,
    "▁similar": 4759,
    "改善": 4760,
    "▁Black": 4761,
    "输入": 4762,
    "房屋": 4763,
    "▁select": 4764,
    "▁College": 4765,
    "临床": 4766,
    "高的": 4767,
    "获取": 4768,
    "河北": 4769,
    "自动": 4770,
    "▁file": 4771,
    "oud": 4772,
    "ufact": 4773,
    "美好": 4774,
    "▁Inc": 4775,
    "展示": 4776,
    "▁King": 4777,
    "▁purch": 4778,
    "内的": 4779,
    "市委": 4780,
    "大会": 4781,
    "▁Val": 4782,
    "▁consum": 4783,
    "注册": 4784,
    "mm": 4785,
    "Cont": 4786,
    "▁associ": 4787,
    "伙伴": 4788,
    "▁Air": 4789,
    "学科": 4790,
    "▁reported": 4791,
    "IL": 4792,
    "基金": 4793,
    "▁log": 4794,
    "感受": 4795,
    "ij": 4796,
    "红色": 4797,
    "▁changes": 4798,
    "amb": 4799,
    "下降": 4800,
    "表达": 4801,
    "▁imm": 4802,
    "上了": 4803,
    "查询": 4804,
    "经理": 4805,
    "的地方": 4806,
    "▁risk": 4807,
    "▁decision": 4808,
    "ession": 4809,
    "必要": 4810,
    "指出": 4811,
    "▁cases": 4812,
    "ford": 4813,
    "ara": 4814,
    "▁property": 4815,
    "EL": 4816,
    "▁mor": 4817,
    "不了": 4818,
    "iple": 4819,
    "的好": 4820,
    "▁black": 4821,
    "apan": 4822,
    "四川": 4823,
    "OT": 4824,
    "不再": 4825,
    "▁successful": 4826,
    "▁however": 4827,
    "▁opportunity": 4828,
    "▁someone": 4829,
    "美丽": 4830,
    "At": 4831,
    "zh": 4832,
    "ser": 4833,
    "▁fire": 4834,
    "▁everyone": 4835,
    "▁customers": 4836,
    "▁minutes": 4837,
    "▁x": 4838,
    "▁date": 4839,
    "创业": 4840,
    "ica": 4841,
    "▁town": 4842,
    "▁target": 4843,
    "留言": 4844,
    "▁Group": 4845,
    "网络配图": 4846,
    "##": 4847,
    "的生活": 4848,
    "▁difficult": 4849,
    "然而": 4850,
    "name": 4851,
    "▁questions": 4852,
    "▁general": 4853,
    "打开": 4854,
    "▁respect": 4855,
    "近期": 4856,
    "搭配": 4857,
    "▁platform": 4858,
    "▁Germ": 4859,
    "▁takes": 4860,
    "呼吸": 4861,
    "加快": 4862,
    "▁anim": 4863,
    "▁potential": 4864,
    "还要": 4865,
    "细胞": 4866,
    "▁Dem": 4867,
    "▁provided": 4868,
    "于是": 4869,
    "▁search": 4870,
    "wood": 4871,
    "▁unique": 4872,
    "▁rad": 4873,
    "▁opp": 4874,
    "▁La": 4875,
    "ashington": 4876,
    "▁Court": 4877,
    "▁ess": 4878,
    "的新": 4879,
    "ply": 4880,
    "▁released": 4881,
    "obile": 4882,
    "▁inj": 4883,
    "▁contract": 4884,
    "明白": 4885,
    "更新": 4886,
    "切实": 4887,
    "出生": 4888,
    "▁began": 4889,
    "▁challeng": 4890,
    "▁wanted": 4891,
    "轻松": 4892,
    "新区": 4893,
    "贯彻": 4894,
    "roups": 4895,
    "制造": 4896,
    "不足": 4897,
    "就像": 4898,
    "orks": 4899,
    "vis": 4900,
    "的方式": 4901,
    "▁Your": 4902,
    "品质": 4903,
    "绿色": 4904,
    "▁party": 4905,
    "oring": 4906,
    "▁increase": 4907,
    "▁throughout": 4908,
    "▁needed": 4909,
    "▁either": 4910,
    "▁ways": 4911,
    "▁veh": 4912,
    "曾经": 4913,
    "So": 4914,
    "iful": 4915,
    "父亲": 4916,
    "思维": 4917,
    "事业单位": 4918,
    "某某": 4919,
    "最好": 4920,
    "ida": 4921,
    "全省": 4922,
    "▁growth": 4923,
    "晚上": 4924,
    "才是": 4925,
    "ection": 4926,
    "eks": 4927,
    "连续": 4928,
    "▁required": 4929,
    "▁Char": 4930,
    "子的": 4931,
    "还能": 4932,
    "ivil": 4933,
    "广州": 4934,
    "▁Hol": 4935,
    "▁late": 4936,
    "宝宝": 4937,
    "人群": 4938,
    "那个": 4939,
    "▁systems": 4940,
    "▁ground": 4941,
    "▁California": 4942,
    "this": 4943,
    "体检": 4944,
    "arc": 4945,
    "一旦": 4946,
    "▁pers": 4947,
    "记得": 4948,
    "▁via": 4949,
    "人口": 4950,
    "可是": 4951,
    "ishing": 4952,
    "▁network": 4953,
    "▁Ac": 4954,
    "不错": 4955,
    "数量": 4956,
    "duc": 4957,
    "迅速": 4958,
    "ese": 4959,
    "整理": 4960,
    "▁cal": 4961,
    "它的": 4962,
    "RO": 4963,
    "▁recomm": 4964,
    "下面": 4965,
    "▁und": 4966,
    "text": 4967,
    "▁insp": 4968,
    "lier": 4969,
    "ffic": 4970,
    "▁arg": 4971,
    "▁fight": 4972,
    "▁vict": 4973,
    "网络配图网络配图": 4974,
    "补贴": 4975,
    "最大的": 4976,
    "▁>": 4977,
    "▁pict": 4978,
    "▁dest": 4979,
    "给予": 4980,
    "▁partners": 4981,
    "负责人": 4982,
    "▁leading": 4983,
    "▁published": 4984,
    "▁soon": 4985,
    "比赛": 4986,
    "ological": 4987,
    "制定": 4988,
    "改造": 4989,
    "atives": 4990,
    "/　": 4991,
    "▁legal": 4992,
    "iate": 4993,
    "hood": 4994,
    "爱的": 4995,
    "▁Pat": 4996,
    "ittee": 4997,
    "流程": 4998,
    "女儿": 4999,
    "▁tal": 5000,
    "umn": 5001,
    "语言": 5002,
    "物质": 5003,
    "▁necess": 5004,
    "▁red": 5005,
    "以为": 5006,
    "实行": 5007,
    "▁subject": 5008,
    "anced": 5009,
    "order": 5010,
    "ports": 5011,
    "▁built": 5012,
    "▁code": 5013,
    "▁played": 5014,
    "山西": 5015,
    "\")": 5016,
    "比例": 5017,
    "rec": 5018,
    "启动": 5019,
    "▁print": 5020,
    "供应": 5021,
    "当前": 5022,
    "overed": 5023,
    "urb": 5024,
    "▁writing": 5025,
    "▁complete": 5026,
    "工具": 5027,
    "▁hope": 5028,
    "▁isn": 5029,
    "ming": 5030,
    "治理": 5031,
    "总结": 5032,
    "▁outside": 5033,
    "创造": 5034,
    "you": 5035,
    "▁Up": 5036,
    "attle": 5037,
    "▁From": 5038,
    "▁wond": 5039,
    "▁professional": 5040,
    "▁comput": 5041,
    "action": 5042,
    "arning": 5043,
    "ude": 5044,
    "事项": 5045,
    "突然": 5046,
    "里面": 5047,
    "zz": 5048,
    "▁anything": 5049,
    "公示": 5050,
    "重要的": 5051,
    "witter": 5052,
    "light": 5053,
    "▁emer": 5054,
    "南京": 5055,
    "▁rather": 5056,
    "ught": 5057,
    "▁Vol": 5058,
    "ocal": 5059,
    "此外": 5060,
    "▁asked": 5061,
    "▁po": 5062,
    "平方": 5063,
    "acebook": 5064,
    "▁link": 5065,
    "▁Gener": 5066,
    "▁,": 5067,
    "协会": 5068,
    "处罚": 5069,
    "Sp": 5070,
    "ING": 5071,
    "aving": 5072,
    "了一个": 5073,
    "▁girl": 5074,
    "给你": 5075,
    "竞争": 5076,
    "更好": 5077,
    "ellow": 5078,
    "在一起": 5079,
    "▁determ": 5080,
    "速度": 5081,
    "是什么": 5082,
    "▁led": 5083,
    "▁arch": 5084,
    "▁quite": 5085,
    "oice": 5086,
    "▁Street": 5087,
    "▁bad": 5088,
    "让我们": 5089,
    "▁fig": 5090,
    "▁director": 5091,
    "END": 5092,
    "field": 5093,
    "▁ste": 5094,
    "免疫": 5095,
    "即使": 5096,
    "现象": 5097,
    "▁accept": 5098,
    "▁sex": 5099,
    "UR": 5100,
    "教授": 5101,
    "▁prim": 5102,
    "▁vot": 5103,
    "▁movie": 5104,
    "反应": 5105,
    "idents": 5106,
    "少年": 5107,
    "▁neg": 5108,
    "▁playing": 5109,
    "▁ensure": 5110,
    "如有侵权": 5111,
    "院校": 5112,
    "▁Phil": 5113,
    "本人": 5114,
    "▁express": 5115,
    "优先": 5116,
    "ysis": 5117,
    "收到": 5118,
    "联系电话": 5119,
    "opt": 5120,
    "▁cell": 5121,
    "▁Acc": 5122,
    "第四": 5123,
    "▁projects": 5124,
    "阳光": 5125,
    "ny": 5126,
    "▁Hist": 5127,
    "▁cover": 5128,
    "月份": 5129,
    "终于": 5130,
    "▁describ": 5131,
    "rab": 5132,
    ";　": 5133,
    "动力": 5134,
    "脱贫": 5135,
    "就要": 5136,
    "inks": 5137,
    "攻坚": 5138,
    "▁prop": 5139,
    "互联网": 5140,
    "▁introdu": 5141,
    "▁Red": 5142,
    "▁medical": 5143,
    "roid": 5144,
    "do": 5145,
    "▁award": 5146,
    "▁clean": 5147,
    "现实": 5148,
    "因素": 5149,
    "▁please": 5150,
    "▁ill": 5151,
    "ables": 5152,
    "事实": 5153,
    "ecutive": 5154,
    "运行": 5155,
    "▁deg": 5156,
    "orge": 5157,
    "示范": 5158,
    "软件": 5159,
    "独立": 5160,
    "▁park": 5161,
    "交警": 5162,
    "▁table": 5163,
    "ager": 5164,
    "▁David": 5165,
    "▁remain": 5166,
    "▁regard": 5167,
    "就在": 5168,
    "案例": 5169,
    "▁Ste": 5170,
    "原作者": 5171,
    "urance": 5172,
    "升级": 5173,
    "重视": 5174,
    "农民": 5175,
    "▁users": 5176,
    "mb": 5177,
    "▁п": 5178,
    "举行": 5179,
    "down": 5180,
    "优质": 5181,
    "▁abs": 5182,
    "▁patients": 5183,
    "▁size": 5184,
    "astic": 5185,
    "▁tou": 5186,
    "▁email": 5187,
    "▁English": 5188,
    "高度": 5189,
    "相对": 5190,
    "同志": 5191,
    "▁mass": 5192,
    "ags": 5193,
    "读书": 5194,
    "放在": 5195,
    "▁document": 5196,
    "湖南": 5197,
    "rel": 5198,
    "想到": 5199,
    "ст": 5200,
    "▁favor": 5201,
    "承担": 5202,
    "ached": 5203,
    "PS": 5204,
    "▁Sw": 5205,
    "▁accom": 5206,
    "ico": 5207,
    "离开": 5208,
    "预计": 5209,
    "mark": 5210,
    "cing": 5211,
    "等等": 5212,
    "▁Washington": 5213,
    "ceed": 5214,
    "收费": 5215,
    "izing": 5216,
    "CC": 5217,
    "商品": 5218,
    "mp": 5219,
    "▁exam": 5220,
    "BA": 5221,
    "▁dam": 5222,
    "▁expected": 5223,
    "成果": 5224,
    "▁plans": 5225,
    "▁Friday": 5226,
    "▁Found": 5227,
    "ville": 5228,
    "itution": 5229,
    "aint": 5230,
    "▁histor": 5231,
    "评价": 5232,
    "▁Book": 5233,
    "研发": 5234,
    "uses": 5235,
    "▁running": 5236,
    "▁integ": 5237,
    "▁East": 5238,
    "oke": 5239,
    "▁white": 5240,
    "研究生": 5241,
    "时刻": 5242,
    "人类": 5243,
    "▁Canada": 5244,
    "同样": 5245,
    "▁designed": 5246,
    "ivity": 5247,
    "▁brand": 5248,
    "▁Council": 5249,
    "粉丝": 5250,
    "▁answ": 5251,
    "资讯": 5252,
    "全力": 5253,
    "鼓励": 5254,
    "▁Sund": 5255,
    "App": 5256,
    "为主": 5257,
    "▁circ": 5258,
    "▁Research": 5259,
    "ha": 5260,
    "▁Cons": 5261,
    "身份证": 5262,
    "▁style": 5263,
    "▁weeks": 5264,
    "la": 5265,
    "复工": 5266,
    "airs": 5267,
    "们的": 5268,
    "▁billion": 5269,
    "平均": 5270,
    "愿意": 5271,
    "One": 5272,
    "def": 5273,
    "小组": 5274,
    "投稿": 5275,
    "sec": 5276,
    "也要": 5277,
    "危险": 5278,
    "rown": 5279,
    "尽量": 5280,
    "▁hop": 5281,
    "irth": 5282,
    "▁pret": 5283,
    "▁European": 5284,
    "顺利": 5285,
    "oom": 5286,
    "▁matter": 5287,
    "▁student": 5288,
    "春节": 5289,
    "ims": 5290,
    "您的": 5291,
    "统计": 5292,
    "队伍": 5293,
    "是因为": 5294,
    "从而": 5295,
    "▁natural": 5296,
    "能源": 5297,
    "充满": 5298,
    "Sc": 5299,
    "▁included": 5300,
    "一条": 5301,
    "rs": 5302,
    "No": 5303,
    "岁的": 5304,
    "▁involved": 5305,
    "▁affect": 5306,
    "▁administ": 5307,
    "wo": 5308,
    "uments": 5309,
    "class": 5310,
    "广场": 5311,
    "平时": 5312,
    "第一时间": 5313,
    "举办": 5314,
    "▁bi": 5315,
    "用的": 5316,
    "一份": 5317,
    "▁Japan": 5318,
    "▁band": 5319,
    "ibrary": 5320,
    "依然": 5321,
    "▁user": 5322,
    "▁goal": 5323,
    "最好的": 5324,
    "主席": 5325,
    "▁cook": 5326,
    "老年": 5327,
    "都要": 5328,
    "▁Republic": 5329,
    "课堂": 5330,
    "▁Now": 5331,
    "之间的": 5332,
    "密切": 5333,
    "学员": 5334,
    "den": 5335,
    "▁seems": 5336,
    "取消": 5337,
    "\":": 5338,
    "▁modern": 5339,
    "▁moment": 5340,
    "▁Prof": 5341,
    "详细": 5342,
    "截至": 5343,
    "▁loss": 5344,
    "各位": 5345,
    "vest": 5346,
    "▁higher": 5347,
    "▁books": 5348,
    "▁meeting": 5349,
    "onday": 5350,
    "自行": 5351,
    "地产": 5352,
    "还会": 5353,
    "aries": 5354,
    "akers": 5355,
    "党史": 5356,
    "▁rate": 5357,
    "▁reve": 5358,
    "生活中": 5359,
    "▁Business": 5360,
    "ension": 5361,
    "vey": 5362,
    "▁innov": 5363,
    "resh": 5364,
    "去年": 5365,
    "▁groups": 5366,
    "▁digital": 5367,
    "上市": 5368,
    "My": 5369,
    "女士": 5370,
    "Is": 5371,
    "和国": 5372,
    "istry": 5373,
    "血管": 5374,
    "始终": 5375,
    "几乎": 5376,
    "特点": 5377,
    "日子": 5378,
    "铁路": 5379,
    "不知": 5380,
    "ror": 5381,
    "▁Trans": 5382,
    "整治": 5383,
    "▁simple": 5384,
    "应对": 5385,
    "alls": 5386,
    "ION": 5387,
    "ref": 5388,
    "哈哈": 5389,
    "iles": 5390,
    "▁region": 5391,
    "▁manufact": 5392,
    "▁Dist": 5393,
    "▁prior": 5394,
    "cn": 5395,
    "▁problems": 5396,
    "▁Techn": 5397,
    "▁influ": 5398,
    "ography": 5399,
    "力的": 5400,
    "▁economic": 5401,
    "美的": 5402,
    "有着": 5403,
    "▁lost": 5404,
    "II": 5405,
    "生肖": 5406,
    "革命": 5407,
    "天的": 5408,
    "云南": 5409,
    "安徽": 5410,
    "尤其是": 5411,
    "▁Mor": 5412,
    "相应": 5413,
    "▁dise": 5414,
    "原创": 5415,
    "Our": 5416,
    "▁sus": 5417,
    "▁receive": 5418,
    "▁deep": 5419,
    "aturday": 5420,
    "居住": 5421,
    "高级": 5422,
    "iece": 5423,
    "能量": 5424,
    "商务": 5425,
    "rect": 5426,
    "每年": 5427,
    "▁base": 5428,
    "发展的": 5429,
    "▁details": 5430,
    "▁Wed": 5431,
    "▁William": 5432,
    "pped": 5433,
    "▁cand": 5434,
    "▁probably": 5435,
    "先进": 5436,
    "错误": 5437,
    "▁Post": 5438,
    "考核": 5439,
    "▁words": 5440,
    "家的": 5441,
    "贡献": 5442,
    "确认": 5443,
    "天津": 5444,
    "有多": 5445,
    "log": 5446,
    "▁approach": 5447,
    "▁path": 5448,
    "▁broad": 5449,
    "▁programs": 5450,
    "▁First": 5451,
    "rought": 5452,
    "▁worth": 5453,
    "▁stri": 5454,
    "opp": 5455,
    "iation": 5456,
    "的朋友": 5457,
    "常见": 5458,
    "练习": 5459,
    "▁web": 5460,
    "▁interview": 5461,
    "重庆": 5462,
    ")(": 5463,
    "▁Year": 5464,
    "▁terms": 5465,
    "良好的": 5466,
    "重新": 5467,
    "▁sym": 5468,
    "申报": 5469,
    "者的": 5470,
    "▁learning": 5471,
    "▁Review": 5472,
    "可能会": 5473,
    "心里": 5474,
    "逐渐": 5475,
    "▁themselves": 5476,
    "icated": 5477,
    "estern": 5478,
    "执法": 5479,
    "▁treatment": 5480,
    "col": 5481,
    "zy": 5482,
    "往期": 5483,
    "▁options": 5484,
    "青春": 5485,
    "▁While": 5486,
    "家里": 5487,
    "▁suggest": 5488,
    "主持": 5489,
    "▁screen": 5490,
    ";(": 5491,
    "ares": 5492,
    "初中": 5493,
    "▁mother": 5494,
    "▁nation": 5495,
    "▁woman": 5496,
    "aches": 5497,
    "rael": 5498,
    "▁average": 5499,
    "ements": 5500,
    "▁System": 5501,
    "Id": 5502,
    "▁sat": 5503,
    "▁drug": 5504,
    "mon": 5505,
    "不同的": 5506,
    "具备": 5507,
    "▁Dec": 5508,
    "贷款": 5509,
    "▁sense": 5510,
    "是不是": 5511,
    "▁itself": 5512,
    "ength": 5513,
    "))": 5514,
    "erous": 5515,
    "asons": 5516,
    "Se": 5517,
    "▁decl": 5518,
    "unities": 5519,
    "oper": 5520,
    "anch": 5521,
    "▁defin": 5522,
    "▁https": 5523,
    "etimes": 5524,
    "也就是": 5525,
    "Pl": 5526,
    "▁sett": 5527,
    "▁regular": 5528,
    "投入": 5529,
    "▁title": 5530,
    "▁stories": 5531,
    "也能": 5532,
    "▁Pal": 5533,
    "婚姻": 5534,
    "资产": 5535,
    "半年": 5536,
    "生的": 5537,
    "▁written": 5538,
    "▁source": 5539,
    "所谓": 5540,
    "▁application": 5541,
    "他人": 5542,
    "▁obs": 5543,
    "▁practice": 5544,
    "伤害": 5545,
    "放弃": 5546,
    "fr": 5547,
    "▁nothing": 5548,
    "▁sales": 5549,
    "▁driv": 5550,
    "Ab": 5551,
    "环节": 5552,
    "▁Out": 5553,
    "动作": 5554,
    "IM": 5555,
    "▁der": 5556,
    "中共": 5557,
    "每次": 5558,
    "▁sold": 5559,
    "的发展": 5560,
    "新冠病毒": 5561,
    "erc": 5562,
    "▁stru": 5563,
    "▁simply": 5564,
    "▁round": 5565,
    "▁states": 5566,
    "另一": 5567,
    "周边": 5568,
    "▁longer": 5569,
    "▁prevent": 5570,
    "植物": 5571,
    "ening": 5572,
    "▁Program": 5573,
    "▁club": 5574,
    "hu": 5575,
    "女孩": 5576,
    "Res": 5577,
    "平安": 5578,
    "博士": 5579,
    "加上": 5580,
    "▁Indian": 5581,
    "▁saw": 5582,
    "board": 5583,
    "Name": 5584,
    "总书记": 5585,
    "色的": 5586,
    "集体": 5587,
    "▁activities": 5588,
    "在这里": 5589,
    "▁jud": 5590,
    "▁attempt": 5591,
    "态度": 5592,
    "ustain": 5593,
    "ayer": 5594,
    "自治区": 5595,
    "推广": 5596,
    "▁British": 5597,
    "erved": 5598,
    "▁Are": 5599,
    "期待": 5600,
    "▁Institute": 5601,
    "这款": 5602,
    "▁safety": 5603,
    "abel": 5604,
    "理念": 5605,
    "ado": 5606,
    "▁son": 5607,
    "▁Tex": 5608,
    "邮箱": 5609,
    "特别是": 5610,
    "共产党": 5611,
    "带着": 5612,
    "▁ut": 5613,
    "空气": 5614,
    "房子": 5615,
    "▁request": 5616,
    "▁parents": 5617,
    "inary": 5618,
    "▁match": 5619,
    "毕竟": 5620,
    "戴口罩": 5621,
    "▁cannot": 5622,
    "意思": 5623,
    "即将": 5624,
    "以前": 5625,
    "发热": 5626,
    "▁mag": 5627,
    "▁Australia": 5628,
    "avy": 5629,
    "福建": 5630,
    "▁knowledge": 5631,
    "estival": 5632,
    "反复": 5633,
    "ago": 5634,
    "html": 5635,
    "高质量": 5636,
    "▁Ob": 5637,
    "紧急": 5638,
    "After": 5639,
    "人民政府": 5640,
    "acing": 5641,
    "新时代": 5642,
    "▁implement": 5643,
    "▁threat": 5644,
    "▁schools": 5645,
    "isl": 5646,
    "▁additional": 5647,
    "住房": 5648,
    "清楚": 5649,
    "身上": 5650,
    "word": 5651,
    "rench": 5652,
    "▁в": 5653,
    "优化": 5654,
    "yp": 5655,
    "大部分": 5656,
    "asc": 5657,
    "温暖": 5658,
    "▁autom": 5659,
    "物业": 5660,
    "理想": 5661,
    "一段": 5662,
    "itect": 5663,
    "▁Sunday": 5664,
    "相当": 5665,
    "▁Facebook": 5666,
    "加大": 5667,
    "双方": 5668,
    "担心": 5669,
    "多个": 5670,
    "发放": 5671,
    "▁beautiful": 5672,
    "美元": 5673,
    "在这": 5674,
    "▁star": 5675,
    "iber": 5676,
    "oul": 5677,
    "iring": 5678,
    "where": 5679,
    "慢慢": 5680,
    "irus": 5681,
    "版权归": 5682,
    "ava": 5683,
    "▁Music": 5684,
    "▁located": 5685,
    "▁response": 5686,
    "▁extra": 5687,
    "审查": 5688,
    "确实": 5689,
    "▁image": 5690,
    "▁conduct": 5691,
    "ript": 5692,
    "esc": 5693,
    "坚决": 5694,
    "▁summer": 5695,
    "技巧": 5696,
    "▁fast": 5697,
    "на": 5698,
    "▁}": 5699,
    "从事": 5700,
    "illing": 5701,
    "▁cy": 5702,
    "▁Cap": 5703,
    "多次": 5704,
    "还在": 5705,
    "ils": 5706,
    "That": 5707,
    "mercial": 5708,
    "第十": 5709,
    "PP": 5710,
    "物资": 5711,
    "处于": 5712,
    "▁color": 5713,
    "Col": 5714,
    "开启": 5715,
    "▁inside": 5716,
    "▁rev": 5717,
    "uesday": 5718,
    "是不": 5719,
    "mission": 5720,
    "▁culture": 5721,
    "▁Association": 5722,
    "英国": 5723,
    "▁fans": 5724,
    "var": 5725,
    "LE": 5726,
    "监测": 5727,
    "▁leave": 5728,
    "▁mach": 5729,
    "▁statement": 5730,
    "限制": 5731,
    "▁Director": 5732,
    "ao": 5733,
    "▁hol": 5734,
    "之外": 5735,
    "▁resources": 5736,
    "突出": 5737,
    "男子": 5738,
    "▁software": 5739,
    "iiii": 5740,
    "附近": 5741,
    "ursday": 5742,
    "思考": 5743,
    "alse": 5744,
    "▁Ear": 5745,
    "▁pred": 5746,
    "英雄": 5747,
    "娱乐": 5748,
    "机场": 5749,
    "enge": 5750,
    "▁Some": 5751,
    "▁player": 5752,
    "▁Monday": 5753,
    "▁Paul": 5754,
    "cription": 5755,
    "oday": 5756,
    "共和国": 5757,
    "ications": 5758,
    "状况": 5759,
    "dom": 5760,
    "olar": 5761,
    "声音": 5762,
    "▁related": 5763,
    "▁Educ": 5764,
    "▁families": 5765,
    "村民": 5766,
    "香港": 5767,
    "上下": 5768,
    "ра": 5769,
    "net": 5770,
    "▁Cr": 5771,
    "追求": 5772,
    "▁pretty": 5773,
    "AA": 5774,
    "▁organiz": 5775,
    "▁anyone": 5776,
    "派出": 5777,
    "inter": 5778,
    "unk": 5779,
    "讲话": 5780,
    "▁distrib": 5781,
    "公交": 5782,
    "▁box": 5783,
    "▁norm": 5784,
    "▁card": 5785,
    "日至": 5786,
    "▁encour": 5787,
    "▁paper": 5788,
    "▁sen": 5789,
    "▁draw": 5790,
    "comes": 5791,
    "▁COVID": 5792,
    "▁center": 5793,
    "▁Public": 5794,
    "防止": 5795,
    "aly": 5796,
    "▁couple": 5797,
    "▁conditions": 5798,
    "UT": 5799,
    "蒙古": 5800,
    "▁comment": 5801,
    "▁kids": 5802,
    "▁pan": 5803,
    "▁collection": 5804,
    "药物": 5805,
    "▁language": 5806,
    "CH": 5807,
    "inated": 5808,
    "协调": 5809,
    "▁James": 5810,
    "我市": 5811,
    "▁father": 5812,
    "▁stage": 5813,
    "uted": 5814,
    "arr": 5815,
    "▁prep": 5816,
    "有什么": 5817,
    "ctions": 5818,
    "erve": 5819,
    "UN": 5820,
    "奋斗": 5821,
    "▁phone": 5822,
    "▁Google": 5823,
    "mas": 5824,
    "很难": 5825,
    "财政": 5826,
    "▁pric": 5827,
    "干净": 5828,
    "▁military": 5829,
    "▁White": 5830,
    "String": 5831,
    "二十": 5832,
    "成都": 5833,
    "▁earn": 5834,
    "imately": 5835,
    "▁surpr": 5836,
    "蛋白": 5837,
    "List": 5838,
    "ampions": 5839,
    "APP": 5840,
    "▁Island": 5841,
    "omb": 5842,
    "eren": 5843,
    "҈҉҉҉҈": 5844,
    "▁Cong": 5845,
    "安装": 5846,
    "҈҉҉҉҈҉҉҉҈": 5847,
    "▁mid": 5848,
    "通报": 5849,
    "View": 5850,
    "收藏": 5851,
    "DA": 5852,
    "精准": 5853,
    "有序": 5854,
    "҈҉҉҉҈҉҉҉҈҈҉҉": 5855,
    "▁organization": 5856,
    "▁serious": 5857,
    "▁Saturday": 5858,
    "▁Ann": 5859,
    "▁£": 5860,
    "▁largest": 5861,
    "▁den": 5862,
    "nesday": 5863,
    "西安": 5864,
    "通道": 5865,
    "▁Mod": 5866,
    "会员": 5867,
    "一体": 5868,
    "利益": 5869,
    "吸引": 5870,
    "兴趣": 5871,
    "▁wid": 5872,
    "考察": 5873,
    "▁bed": 5874,
    "完整": 5875,
    "҉҉҈҉҉҉҈҉҉҉҈҈҉҉": 5876,
    "▁businesses": 5877,
    "itiz": 5878,
    "律师": 5879,
    "▁ability": 5880,
    "itation": 5881,
    "▁drive": 5882,
    "聚集": 5883,
    "TV": 5884,
    "iqu": 5885,
    "覆盖": 5886,
    "阳市": 5887,
    "▁Port": 5888,
    "ston": 5889,
    "gest": 5890,
    "至少": 5891,
    "imum": 5892,
    "▁bank": 5893,
    "pm": 5894,
    "rote": 5895,
    "疫情防控工作": 5896,
    "▁Jack": 5897,
    "运势": 5898,
    "ding": 5899,
    "▁Ben": 5900,
    "▁immed": 5901,
    "EM": 5902,
    "学位": 5903,
    "▁ple": 5904,
    "▁developed": 5905,
    "停车": 5906,
    "▁squ": 5907,
    "衣服": 5908,
    "▁Ant": 5909,
    "全体": 5910,
    "▁div": 5911,
    "▁ball": 5912,
    "不如": 5913,
    "▁Green": 5914,
    "相比": 5915,
    "百年": 5916,
    "yond": 5917,
    "来到": 5918,
    "▁store": 5919,
    "▁upon": 5920,
    "▁Science": 5921,
    "前往": 5922,
    "▁Board": 5923,
    "微信公众号": 5924,
    "力度": 5925,
    "▁instead": 5926,
    "azing": 5927,
    "排名": 5928,
    "▁Africa": 5929,
    "adem": 5930,
    "ube": 5931,
    "来源于": 5932,
    "▁Develop": 5933,
    "突破": 5934,
    "记忆": 5935,
    "警方": 5936,
    "温度": 5937,
    "▁Hall": 5938,
    "▁fit": 5939,
    "去了": 5940,
    "教育部": 5941,
    "▁Best": 5942,
    "▁firm": 5943,
    "绝对": 5944,
    "过的": 5945,
    "▁collabor": 5946,
    "▁sens": 5947,
    "force": 5948,
    "▁Angel": 5949,
    "▁block": 5950,
    "▁sche": 5951,
    "ples": 5952,
    "万人": 5953,
    "irit": 5954,
    "广西": 5955,
    "▁scient": 5956,
    "▁multiple": 5957,
    "▁hor": 5958,
    "▁\\": 5959,
    "ни": 5960,
    "排查": 5961,
    "饮食": 5962,
    "list": 5963,
    "▁Texas": 5964,
    "渠道": 5965,
    "▁blog": 5966,
    "lim": 5967,
    "检察": 5968,
    "▁Service": 5969,
    "境外": 5970,
    "▁gradu": 5971,
    "like": 5972,
    "▁levels": 5973,
    "公务": 5974,
    "idered": 5975,
    "▁Read": 5976,
    "hest": 5977,
    "▁progress": 5978,
    "反映": 5979,
    "▁providing": 5980,
    "各级": 5981,
    "并不是": 5982,
    "▁nearly": 5983,
    "▁ready": 5984,
    "▁quickly": 5985,
    "▁looks": 5986,
    "解释": 5987,
    "Im": 5988,
    "▁Sim": 5989,
    "退休": 5990,
    "路上": 5991,
    "▁complex": 5992,
    "En": 5993,
    "▁cause": 5994,
    "有一个": 5995,
    "眼睛": 5996,
    "lements": 5997,
    "▁Pre": 5998,
    "osing": 5999,
    "▁dead": 6000,
    "消费者": 6001,
    "唯一": 6002,
    "给大家": 6003,
    "分类": 6004,
    "▁ded": 6005,
    "▁hous": 6006,
    "ki": 6007,
    "▁nov": 6008,
    "▁Fil": 6009,
    "令人": 6010,
    "▁material": 6011,
    "cript": 6012,
    "▁named": 6013,
    "风格": 6014,
    "wide": 6015,
    "using": 6016,
    "inese": 6017,
    "节目": 6018,
    "▁Office": 6019,
    "olf": 6020,
    "▁growing": 6021,
    "▁skills": 6022,
    "aves": 6023,
    "新疆": 6024,
    "每一": 6025,
    "规则": 6026,
    "▁Democr": 6027,
    "最低": 6028,
    "调研": 6029,
    "▁separ": 6030,
    "atal": 6031,
    "She": 6032,
    "强的": 6033,
    "▁prem": 6034,
    "梦想": 6035,
    "sych": 6036,
    "形象": 6037,
    "▁teac": 6038,
    "▁teams": 6039,
    "予以": 6040,
    "原来": 6041,
    "陕西": 6042,
    "▁mat": 6043,
    "▁regul": 6044,
    "下了": 6045,
    "▁wel": 6046,
    "▁Je": 6047,
    "▁standard": 6048,
    "urt": 6049,
    "▁rout": 6050,
    "Home": 6051,
    "▁himself": 6052,
    "▁Inter": 6053,
    "坚定": 6054,
    "▁plant": 6055,
    "▁costs": 6056,
    "amily": 6057,
    "更多的": 6058,
    "▁reading": 6059,
    "▁Michael": 6060,
    "主体": 6061,
    "哪里": 6062,
    "body": 6063,
    "这就是": 6064,
    "▁independ": 6065,
    "▁Israel": 6066,
    "▁capital": 6067,
    "图文": 6068,
    "大道": 6069,
    "▁feature": 6070,
    "▁Home": 6071,
    "band": 6072,
    "OL": 6073,
    "▁Us": 6074,
    "▁Ne": 6075,
    "udget": 6076,
    "爸爸": 6077,
    "▁exact": 6078,
    "aby": 6079,
    "venue": 6080,
    "多年": 6081,
    "Bl": 6082,
    "▁federal": 6083,
    "▁goes": 6084,
    "它们": 6085,
    "背景": 6086,
    "Get": 6087,
    "▁employees": 6088,
    "地铁": 6089,
    "▁oil": 6090,
    "多种": 6091,
    "使命": 6092,
    "▁chance": 6093,
    "▁IN": 6094,
    "▁General": 6095,
    "▁lic": 6096,
    "▁Dan": 6097,
    "大队": 6098,
    "时的": 6099,
    "她们": 6100,
    "社会主义": 6101,
    "化的": 6102,
    "支部": 6103,
    "颜色": 6104,
    "isions": 6105,
    "本身": 6106,
    "▁seek": 6107,
    "҉҉҈҉҉҉҈҉҉҉҈҈҉҉҈": 6108,
    "▁trade": 6109,
    "协议": 6110,
    "▁ver": 6111,
    "▁wide": 6112,
    "女生": 6113,
    "▁cross": 6114,
    "分数": 6115,
    "▁ord": 6116,
    "ounter": 6117,
    "pose": 6118,
    "污染": 6119,
    "lick": 6120,
    "广播": 6121,
    "▁science": 6122,
    "义务": 6123,
    "IV": 6124,
    "▁race": 6125,
    "▁Super": 6126,
    "uy": 6127,
    "Ind": 6128,
    "一家": 6129,
    "营业": 6130,
    "▁Mart": 6131,
    "依据": 6132,
    "unction": 6133,
    "江西": 6134,
    "人民共和国": 6135,
    "see": 6136,
    "谢谢": 6137,
    "国务": 6138,
    "▁display": 6139,
    "说的": 6140,
    "ka": 6141,
    "回顾": 6142,
    "长的": 6143,
    "件事": 6144,
    "不起": 6145,
    "lying": 6146,
    "▁Get": 6147,
    "一生": 6148,
    "▁Ev": 6149,
    "▁ten": 6150,
    "men": 6151,
    "▁subs": 6152,
    "nown": 6153,
    "▁mus": 6154,
    "▁whose": 6155,
    "中华人民共和国": 6156,
    "应聘": 6157,
    "▁Tuesday": 6158,
    "好了": 6159,
    "收获": 6160,
    "oes": 6161,
    "rian": 6162,
    "↓↓↓": 6163,
    "贫困": 6164,
    "工艺": 6165,
    "▁Rich": 6166,
    "观点": 6167,
    "▁Great": 6168,
    "探索": 6169,
    "详情": 6170,
    "rial": 6171,
    "财富": 6172,
    "有所": 6173,
    "▁sil": 6174,
    "检验": 6175,
    "rast": 6176,
    "上述": 6177,
    "并没有": 6178,
    "的同时": 6179,
    "体温": 6180,
    "机动车": 6181,
    "Or": 6182,
    "▁ideas": 6183,
    "摄影": 6184,
    "明星": 6185,
    "▁maintain": 6186,
    "▁decided": 6187,
    "上涨": 6188,
    "出来的": 6189,
    "　/　": 6190,
    "▁brought": 6191,
    "诈骗": 6192,
    "▁England": 6193,
    "ona": 6194,
    "禁止": 6195,
    "rated": 6196,
    "大多数": 6197,
    "ategy": 6198,
    "▁workers": 6199,
    "违规": 6200,
    "▁official": 6201,
    "开心": 6202,
    "▁communities": 6203,
    "▁achieve": 6204,
    "▁acqu": 6205,
    "统筹": 6206,
    "人在": 6207,
    "通行": 6208,
    "美食": 6209,
    "▁Thursday": 6210,
    "но": 6211,
    "担当": 6212,
    "▁parts": 6213,
    "形势": 6214,
    "▁wasn": 6215,
    "▁click": 6216,
    "lam": 6217,
    "▁mix": 6218,
    "▁Wind": 6219,
    "▁Del": 6220,
    "扶贫": 6221,
    "感到": 6222,
    "配套": 6223,
    "aughter": 6224,
    "ties": 6225,
    "ко": 6226,
    "▁effic": 6227,
    "▁wonder": 6228,
    "内部": 6229,
    "十年": 6230,
    "ae": 6231,
    "举报": 6232,
    "ipment": 6233,
    ":(": 6234,
    "公益": 6235,
    "挑战": 6236,
    "▁Rober": 6237,
    "结婚": 6238,
    "有时": 6239,
    "刺激": 6240,
    "▁rock": 6241,
    "▁served": 6242,
    "不住": 6243,
    "▁respond": 6244,
    "▁neigh": 6245,
    "的不": 6246,
    "▁candid": 6247,
    "▁Here": 6248,
    "▁Sing": 6249,
    "')": 6250,
    "有点": 6251,
    "▁Life": 6252,
    "▁investment": 6253,
    "ences": 6254,
    "复杂": 6255,
    "▁opportunities": 6256,
    "变成": 6257,
    "▁boy": 6258,
    "假期": 6259,
    "融合": 6260,
    "▁saying": 6261,
    "化学": 6262,
    "懂得": 6263,
    "做法": 6264,
    "权益": 6265,
    "一场": 6266,
    "house": 6267,
    "评估": 6268,
    "▁streng": 6269,
    "▁considered": 6270,
    "实力": 6271,
    "多了": 6272,
    "▁demand": 6273,
    "iger": 6274,
    "孩子们": 6275,
    "ро": 6276,
    "▁Press": 6277,
    "是个": 6278,
    "▁word": 6279,
    "▁wrote": 6280,
    "win": 6281,
    "▁reach": 6282,
    "▁attention": 6283,
    "股份": 6284,
    "▁Conf": 6285,
    "四个": 6286,
    "haps": 6287,
    "良好": 6288,
    "将会": 6289,
    "都可以": 6290,
    "▁reports": 6291,
    "▁Services": 6292,
    "▁lower": 6293,
    "印度": 6294,
    "组成": 6295,
    "▁suff": 6296,
    "▁efforts": 6297,
    "itar": 6298,
    "职位": 6299,
    "熟悉": 6300,
    "人大": 6301,
    "▁gave": 6302,
    "▁capt": 6303,
    "▁allows": 6304,
    "▁trust": 6305,
    "▁Gold": 6306,
    "▁cam": 6307,
    "▁Church": 6308,
    "▁huge": 6309,
    "gen": 6310,
    "bon": 6311,
    "或许": 6312,
    "考研": 6313,
    "▁happy": 6314,
    "类型": 6315,
    "eck": 6316,
    "休息": 6317,
    "也没有": 6318,
    "▁Wednesday": 6319,
    "▁qual": 6320,
    "内心": 6321,
    "▁towards": 6322,
    "PA": 6323,
    "icip": 6324,
    "助力": 6325,
    "老板": 6326,
    "iant": 6327,
    "bit": 6328,
    "夫妻": 6329,
    "分为": 6330,
    "科研": 6331,
    "ios": 6332,
    "▁http": 6333,
    "补充": 6334,
    "世纪": 6335,
    "▁safe": 6336,
    "体现": 6337,
    "出租": 6338,
    "每一个": 6339,
    "▁bal": 6340,
    "加工": 6341,
    "微博": 6342,
    "也许": 6343,
    "很快": 6344,
    "▁govern": 6345,
    "▁Arch": 6346,
    "下去": 6347,
    "itc": 6348,
    "▁contain": 6349,
    "食用": 6350,
    "神经": 6351,
    "▁evidence": 6352,
    "sequ": 6353,
    "省委": 6354,
    "▁highly": 6355,
    "(　": 6356,
    "▁Flor": 6357,
    "▁gets": 6358,
    "嫌疑": 6359,
    "让我": 6360,
    "▁variety": 6361,
    "中国共产党": 6362,
    "Be": 6363,
    "cel": 6364,
    "素质": 6365,
    "引发": 6366,
    "▁choose": 6367,
    "▁Twitter": 6368,
    "ache": 6369,
    "本地": 6370,
    "三年": 6371,
    "▁situation": 6372,
    "▁Commission": 6373,
    "第一次": 6374,
    "istan": 6375,
    "师范": 6376,
    "▁message": 6377,
    "▁Ber": 6378,
    "称为": 6379,
    "▁location": 6380,
    "ota": 6381,
    "icine": 6382,
    "more": 6383,
    "▁Mag": 6384,
    "▁Foundation": 6385,
    "▁enter": 6386,
    "met": 6387,
    "▁Company": 6388,
    "▁positive": 6389,
    "的作用": 6390,
    "berg": 6391,
    "生活的": 6392,
    "国务院": 6393,
    "with": 6394,
    "ancy": 6395,
    "OP": 6396,
    "▁Award": 6397,
    "oyal": 6398,
    "za": 6399,
    "aled": 6400,
    "司机": 6401,
    "TS": 6402,
    "血压": 6403,
    "▁usually": 6404,
    "非法": 6405,
    "▁spent": 6406,
    "种植": 6407,
    "change": 6408,
    "▁born": 6409,
    "链接": 6410,
    "▁expert": 6411,
    "▁relig": 6412,
    "▁deliver": 6413,
    "▁promot": 6414,
    "所有的": 6415,
    "随后": 6416,
    "bre": 6417,
    "enty": 6418,
    "▁seven": 6419,
    "出口": 6420,
    "认定": 6421,
    "扩大": 6422,
    "很好": 6423,
    "贵州": 6424,
    "税务": 6425,
    "▁hands": 6426,
    "而言": 6427,
    "▁с": 6428,
    "▁traditional": 6429,
    "准确": 6430,
    "▁Work": 6431,
    "▁Mem": 6432,
    "就不": 6433,
    "▁Thom": 6434,
    "▁speed": 6435,
    "▁necessary": 6436,
    "还可以": 6437,
    "▁arriv": 6438,
    "▁population": 6439,
    "▁fair": 6440,
    "▁wrong": 6441,
    "文学": 6442,
    "效率": 6443,
    "专题": 6444,
    "▁Education": 6445,
    "▁clients": 6446,
    "温馨": 6447,
    "pper": 6448,
    "iding": 6449,
    "▁shoot": 6450,
    "▁lack": 6451,
    "角度": 6452,
    "▁hum": 6453,
    "▁thous": 6454,
    "天下": 6455,
    "▁expand": 6456,
    "▁download": 6457,
    "判断": 6458,
    "▁benefits": 6459,
    "lished": 6460,
    "我是": 6461,
    "▁century": 6462,
    "▁copy": 6463,
    "流行": 6464,
    "意味": 6465,
    "▁giving": 6466,
    "ocks": 6467,
    "围绕": 6468,
    "法规": 6469,
    "▁bott": 6470,
    "While": 6471,
    "手术": 6472,
    "▁earlier": 6473,
    "▁gives": 6474,
    "会计": 6475,
    "▁choice": 6476,
    "data": 6477,
    "辅导": 6478,
    "js": 6479,
    "▁surv": 6480,
    "理由": 6481,
    "▁customer": 6482,
    "They": 6483,
    "▁Bel": 6484,
    "▁exhib": 6485,
    "____": 6486,
    "het": 6487,
    "▁Ke": 6488,
    "早上": 6489,
    "大型": 6490,
    "▁sell": 6491,
    "味道": 6492,
    "▁demon": 6493,
    "好好": 6494,
    "Man": 6495,
    "很大": 6496,
    "▁Met": 6497,
    "包含": 6498,
    "chan": 6499,
    "date": 6500,
    "▁restaur": 6501,
    "建成": 6502,
    "▁etc": 6503,
    "▁increasing": 6504,
    "▁nature": 6505,
    "就有": 6506,
    "▁interesting": 6507,
    "hi": 6508,
    "动态": 6509,
    "▁farm": 6510,
    "▁dog": 6511,
    "人物": 6512,
    "成分": 6513,
    "奖励": 6514,
    "mitted": 6515,
    "▁Franc": 6516,
    "线路": 6517,
    "▁solution": 6518,
    "随时": 6519,
    "及以上": 6520,
    "AB": 6521,
    "▁quarter": 6522,
    "看着": 6523,
    "▁leader": 6524,
    "▁Mac": 6525,
    "box": 6526,
    "几年": 6527,
    "▁Over": 6528,
    "▁write": 6529,
    "人力": 6530,
    "加油": 6531,
    "▁hear": 6532,
    "▁eight": 6533,
    "青岛": 6534,
    "▁Road": 6535,
    "生长": 6536,
    "舒适": 6537,
    "▁THE": 6538,
    "▁climate": 6539,
    "▁felt": 6540,
    "▁cast": 6541,
    "两人": 6542,
    "▁comfort": 6543,
    "▁fem": 6544,
    "fully": 6545,
    "▁excell": 6546,
    "▁Leg": 6547,
    "▁touch": 6548,
    "just": 6549,
    "gl": 6550,
    "▁strateg": 6551,
    "▁wife": 6552,
    "派出所": 6553,
    "损失": 6554,
    "▁morning": 6555,
    "推出": 6556,
    "传染": 6557,
    "▁French": 6558,
    "ya": 6559,
    "From": 6560,
    "救援": 6561,
    "采购": 6562,
    "▁aw": 6563,
    "太阳": 6564,
    "▁Bank": 6565,
    "ancing": 6566,
    "▁detail": 6567,
    "▁sn": 6568,
    "cm": 6569,
    "▁journal": 6570,
    "lied": 6571,
    "olic": 6572,
    "CT": 6573,
    "▁bus": 6574,
    "quest": 6575,
    "习近平总书记": 6576,
    "▁solutions": 6577,
    "日前": 6578,
    "气温": 6579,
    "风景": 6580,
    "place": 6581,
    "战争": 6582,
    "每个人": 6583,
    "▁tick": 6584,
    "女子": 6585,
    "▁save": 6586,
    "▁commit": 6587,
    "放心": 6588,
    "istics": 6589,
    "深度": 6590,
    "iller": 6591,
    "▁credit": 6592,
    "妻子": 6593,
    "Post": 6594,
    "▁starting": 6595,
    "leep": 6596,
    "▁directly": 6597,
    "IG": 6598,
    "▁avoid": 6599,
    "▁section": 6600,
    "简介": 6601,
    "十二": 6602,
    "▁hospital": 6603,
    "▁Add": 6604,
    "▁Mal": 6605,
    "▁Tom": 6606,
    "More": 6607,
    "ester": 6608,
    "bed": 6609,
    "备考": 6610,
    "财务": 6611,
    "自主": 6612,
    "PR": 6613,
    "进口": 6614,
    "一定的": 6615,
    "难以": 6616,
    "care": 6617,
    "▁vacc": 6618,
    "时尚": 6619,
    "百姓": 6620,
    "▁Museum": 6621,
    "▁creating": 6622,
    "志愿者": 6623,
    "讨论": 6624,
    "▁strugg": 6625,
    "▁effective": 6626,
    "▁gas": 6627,
    "公务员": 6628,
    "▁college": 6629,
    "评论": 6630,
    "▁individuals": 6631,
    "itch": 6632,
    "arily": 6633,
    "人士": 6634,
    "手段": 6635,
    "拒绝": 6636,
    "▁bill": 6637,
    "inn": 6638,
    ">>": 6639,
    "▁aware": 6640,
    "▁died": 6641,
    "名字": 6642,
    "▁launch": 6643,
    "▁mention": 6644,
    "undred": 6645,
    "▁sports": 6646,
    "小的": 6647,
    "ashion": 6648,
    "时光": 6649,
    "宣布": 6650,
    "面临": 6651,
    "Val": 6652,
    "▁League": 6653,
    "▁lif": 6654,
    "杭州": 6655,
    "发表": 6656,
    "Read": 6657,
    "▁artist": 6658,
    "天然": 6659,
    "▁PM": 6660,
    "▁construction": 6661,
    "出去": 6662,
    "论坛": 6663,
    "iverse": 6664,
    "平方米": 6665,
    "会上": 6666,
    "ression": 6667,
    "▁option": 6668,
    "▁disease": 6669,
    "▁AN": 6670,
    "健身": 6671,
    "owers": 6672,
    "▁characters": 6673,
    "▁helped": 6674,
    "邀请": 6675,
    "清洁": 6676,
    "incip": 6677,
    "运用": 6678,
    "▁places": 6679,
    "成就": 6680,
    "这位": 6681,
    "朋友圈": 6682,
    "▁History": 6683,
    "▁limited": 6684,
    "▁feed": 6685,
    "ults": 6686,
    "很有": 6687,
    "Acc": 6688,
    "▁liter": 6689,
    "ologies": 6690,
    "han": 6691,
    "porate": 6692,
    "▁convers": 6693,
    "后台": 6694,
    "▁Bre": 6695,
    "硕士": 6696,
    "赚钱": 6697,
    "循环": 6698,
    "提交": 6699,
    "·　": 6700,
    "▁Class": 6701,
    "营销": 6702,
    "▁beyond": 6703,
    "中小": 6704,
    "urrent": 6705,
    "曝光": 6706,
    "的人生": 6707,
    "进步": 6708,
    "▁Str": 6709,
    "▁Mary": 6710,
    "▁effort": 6711,
    "▁civil": 6712,
    "orage": 6713,
    "实在": 6714,
    "▁regist": 6715,
    "关心": 6716,
    "司法": 6717,
    "▁fully": 6718,
    "锻炼": 6719,
    "刚刚": 6720,
    "▁particularly": 6721,
    "尊重": 6722,
    "上班": 6723,
    "igation": 6724,
    "▁Mus": 6725,
    "▁yourself": 6726,
    "▁inform": 6727,
    "reme": 6728,
    "▁materials": 6729,
    "指南": 6730,
    "▁sal": 6731,
    "▁roll": 6732,
    "县委": 6733,
    "▁daily": 6734,
    "Pre": 6735,
    "fo": 6736,
    "同学们": 6737,
    "icon": 6738,
    "uan": 6739,
    "ecial": 6740,
    "▁annual": 6741,
    "的一个": 6742,
    "ulture": 6743,
    "▁piece": 6744,
    "▁behav": 6745,
    "▁consult": 6746,
    "▁laun": 6747,
    "MA": 6748,
    "医保": 6749,
    "NA": 6750,
    "▁Government": 6751,
    "ourney": 6752,
    "▁green": 6753,
    "合法": 6754,
    "趋势": 6755,
    "▁force": 6756,
    "edy": 6757,
    "包装": 6758,
    "▁Child": 6759,
    "▁reflect": 6760,
    "Type": 6761,
    "ander": 6762,
    "De": 6763,
    "纷纷": 6764,
    "▁transport": 6765,
    "▁ult": 6766,
    "▁appoint": 6767,
    "▁uses": 6768,
    "▁officials": 6769,
    "广泛": 6770,
    "不限": 6771,
    "bt": 6772,
    "porary": 6773,
    "隐患": 6774,
    "书法": 6775,
    "养殖": 6776,
    "仍然": 6777,
    "子女": 6778,
    "▁concept": 6779,
    "▁mis": 6780,
    "▁degree": 6781,
    "▁birth": 6782,
    "▁Journal": 6783,
    "▁analysis": 6784,
    "装修": 6785,
    "▁ap": 6786,
    "dd": 6787,
    "告知": 6788,
    "▁consist": 6789,
    "▁Intern": 6790,
    "▁Fore": 6791,
    "▁ones": 6792,
    "▁ri": 6793,
    "▁swe": 6794,
    "在于": 6795,
    "热线": 6796,
    "▁computer": 6797,
    "处置": 6798,
    "ellig": 6799,
    "▁Club": 6800,
    "▁Star": 6801,
    "eat": 6802,
    "缴费": 6803,
    "▁Lou": 6804,
    "lor": 6805,
    "利于": 6806,
    "odes": 6807,
    "▁society": 6808,
    "▁answer": 6809,
    "▁heard": 6810,
    "SS": 6811,
    "▁recommend": 6812,
    "住宅": 6813,
    "▁Def": 6814,
    "旅行": 6815,
    "▁Most": 6816,
    "▁Play": 6817,
    "适应": 6818,
    "等待": 6819,
    "纪念": 6820,
    "▁electric": 6821,
    "▁stream": 6822,
    "▁commercial": 6823,
    "的影响": 6824,
    "▁stra": 6825,
    "▁Congress": 6826,
    "血液": 6827,
    "不良": 6828,
    "▁dream": 6829,
    "▁moving": 6830,
    "拍摄": 6831,
    "ero": 6832,
    "yth": 6833,
    "传承": 6834,
    "的基础": 6835,
    "▁attract": 6836,
    "▁economy": 6837,
    "rief": 6838,
    "ste": 6839,
    "▁Chinese": 6840,
    "ca": 6841,
    "▁planning": 6842,
    "讲解": 6843,
    "把握": 6844,
    "▁moved": 6845,
    "rive": 6846,
    "单元": 6847,
    "异常": 6848,
    "▁subst": 6849,
    "▁beginning": 6850,
    "icate": 6851,
    "日上午": 6852,
    "扫描": 6853,
    "指标": 6854,
    "先后": 6855,
    "上方": 6856,
    "一边": 6857,
    "传递": 6858,
    "当天": 6859,
    "仪式": 6860,
    "▁marketing": 6861,
    "客服": 6862,
    "▁mission": 6863,
    "业主": 6864,
    "rim": 6865,
    "打击": 6866,
    "蔬菜": 6867,
    "生素": 6868,
    "▁vill": 6869,
    "水果": 6870,
    "▁increased": 6871,
    "不想": 6872,
    "ta": 6873,
    "▁football": 6874,
    "创建": 6875,
    "ibly": 6876,
    "资本": 6877,
    "移动": 6878,
    "▁har": 6879,
    "▁Sam": 6880,
    "▁Development": 6881,
    "▁Rel": 6882,
    "▁Florida": 6883,
    "▁Camp": 6884,
    "▁fa": 6885,
    "annel": 6886,
    "▁Rob": 6887,
    "ros": 6888,
    "hens": 6889,
    "▁string": 6890,
    "▁allowed": 6891,
    "瞬间": 6892,
    "药品": 6893,
    "第五": 6894,
    "职责": 6895,
    "▁shot": 6896,
    "Not": 6897,
    "rey": 6898,
    "▁Nov": 6899,
    "▁mobile": 6900,
    "适当": 6901,
    "成熟": 6902,
    "comp": 6903,
    "▁types": 6904,
    "游客": 6905,
    "版权归原作者": 6906,
    "名的": 6907,
    "初心": 6908,
    "最佳": 6909,
    "arden": 6910,
    "▁II": 6911,
    "缓解": 6912,
    "▁changed": 6913,
    "不够": 6914,
    "encies": 6915,
    "▁CEO": 6916,
    "acity": 6917,
    "▁ter": 6918,
    "名称": 6919,
    "itable": 6920,
    "超市": 6921,
    "性格": 6922,
    "机械": 6923,
    "hem": 6924,
    "lear": 6925,
    "更有": 6926,
    "▁Mil": 6927,
    "整改": 6928,
    "吸收": 6929,
    "细节": 6930,
    "▁Cam": 6931,
    "自信": 6932,
    "展现": 6933,
    "▁Minister": 6934,
    "承诺": 6935,
    "深刻": 6936,
    "but": 6937,
    "rie": 6938,
    "在此": 6939,
    "东北": 6940,
    "><": 6941,
    "可以说": 6942,
    "ened": 6943,
    "▁wild": 6944,
    "▁gold": 6945,
    "收益": 6946,
    "irgin": 6947,
    "周年": 6948,
    "▁items": 6949,
    "▁experienc": 6950,
    "azine": 6951,
    "isode": 6952,
    "▁challenges": 6953,
    "▁categ": 6954,
    "截止": 6955,
    "复习": 6956,
    "▁Project": 6957,
    "▁shared": 6958,
    "▁serve": 6959,
    "临时": 6960,
    "面向": 6961,
    "▁clin": 6962,
    "▁goals": 6963,
    "▁▁▁▁▁▁▁▁▁▁▁": 6964,
    "让孩子": 6965,
    "城乡": 6966,
    "▁remember": 6967,
    "▁continued": 6968,
    "做了": 6969,
    "餐饮": 6970,
    "走进": 6971,
    "▁Big": 6972,
    "情感": 6973,
    "fig": 6974,
    "典型": 6975,
    "▁District": 6976,
    "▁numbers": 6977,
    "▁mount": 6978,
    "▁fresh": 6979,
    "isco": 6980,
    "▁amazing": 6981,
    "▁easily": 6982,
    "意味着": 6983,
    "通常": 6984,
    "▁Rock": 6985,
    "▁AM": 6986,
    "▁slow": 6987,
    "SE": 6988,
    "▁Sur": 6989,
    "也就": 6990,
    "FF": 6991,
    "~~": 6992,
    "azon": 6993,
    "主管": 6994,
    "▁Sal": 6995,
    "祝福": 6996,
    "▁Bay": 6997,
    "▁active": 6998,
    "▁desp": 6999,
    "汇总": 7000,
    "乡镇": 7001,
    "▁id": 7002,
    "面前": 7003,
    "▁studies": 7004,
    "umber": 7005,
    "▁election": 7006,
    "▁er": 7007,
    "作出": 7008,
    "门诊": 7009,
    "▁organizations": 7010,
    "有没有": 7011,
    "▁George": 7012,
    "睡眠": 7013,
    "▁▁▁▁▁": 7014,
    "互动": 7015,
    "▁wood": 7016,
    "▁Times": 7017,
    "全程": 7018,
    "▁physical": 7019,
    "怎样": 7020,
    "no": 7021,
    "iled": 7022,
    "Le": 7023,
    "print": 7024,
    "▁sustain": 7025,
    "房地产": 7026,
    "及其": 7027,
    "▁speak": 7028,
    "高效": 7029,
    "igned": 7030,
    "icago": 7031,
    "vant": 7032,
    "赶紧": 7033,
    "izes": 7034,
    "上面": 7035,
    "▁wants": 7036,
    "▁Att": 7037,
    "意外": 7038,
    "▁Top": 7039,
    "GB": 7040,
    "的前": 7041,
    "▁Smith": 7042,
    "ken": 7043,
    "ying": 7044,
    "▁turned": 7045,
    "▁Mex": 7046,
    "一路": 7047,
    "专门": 7048,
    "▁grand": 7049,
    "▁Ret": 7050,
    "▁favorite": 7051,
    "人工": 7052,
    "▁Christmas": 7053,
    "做的": 7054,
    "马上": 7055,
    "入口": 7056,
    "过了": 7057,
    "▁meaning": 7058,
    "▁Committee": 7059,
    "寻找": 7060,
    "gu": 7061,
    "人民法院": 7062,
    "issions": 7063,
    "线下": 7064,
    "▁Open": 7065,
    "▁Women": 7066,
    "▁imag": 7067,
    "自觉": 7068,
    "做出": 7069,
    "海南": 7070,
    "房产": 7071,
    "▁Carol": 7072,
    "outhern": 7073,
    "▁biggest": 7074,
    "soft": 7075,
    "ords": 7076,
    "▁tools": 7077,
    "鸡蛋": 7078,
    "▁understanding": 7079,
    "▁images": 7080,
    "回到": 7081,
    "▁emot": 7082,
    "▁Sy": 7083,
    "各个": 7084,
    "rupt": 7085,
    "▁dro": 7086,
    "将在": 7087,
    "▁USA": 7088,
    "外出": 7089,
    "▁finally": 7090,
    "正是": 7091,
    "▁initi": 7092,
    "▁ahead": 7093,
    "彻底": 7094,
    "▁established": 7095,
    "▁rules": 7096,
    "▁Jew": 7097,
    "▁…": 7098,
    "uty": 7099,
    "▁carry": 7100,
    "▁remains": 7101,
    "布局": 7102,
    "Qu": 7103,
    "▁Society": 7104,
    "term": 7105,
    "发动": 7106,
    "▁Good": 7107,
    "▁Care": 7108,
    "相互": 7109,
    "life": 7110,
    "脱贫攻坚": 7111,
    "▁Alex": 7112,
    "感染者": 7113,
    "▁dark": 7114,
    "atre": 7115,
    "inally": 7116,
    "▁equipment": 7117,
    "▁budget": 7118,
    "▁Que": 7119,
    "▁Profess": 7120,
    "的通知": 7121,
    "▁legisl": 7122,
    "▁device": 7123,
    "mar": 7124,
    "的情况下": 7125,
    "▁paid": 7126,
    "上一": 7127,
    "副书记": 7128,
    "ecause": 7129,
    "ervation": 7130,
    "▁People": 7131,
    "警察": 7132,
    "▁join": 7133,
    "▁foreign": 7134,
    "车型": 7135,
    "anta": 7136,
    "人民医院": 7137,
    "中小学": 7138,
    "▁Management": 7139,
    "▁correct": 7140,
    "场景": 7141,
    "▁blood": 7142,
    "▁challenge": 7143,
    "iers": 7144,
    "▁effects": 7145,
    "出版": 7146,
    "到的": 7147,
    "标志": 7148,
    "师生": 7149,
    "onent": 7150,
    "填写": 7151,
    "成年": 7152,
    "SC": 7153,
    "管控": 7154,
    "点赞": 7155,
    "▁tried": 7156,
    "▁cool": 7157,
    "ronic": 7158,
    "RA": 7159,
    "▁funding": 7160,
    "▁assess": 7161,
    "▁Media": 7162,
    "TA": 7163,
    "定期": 7164,
    "几天": 7165,
    "▁background": 7166,
    "resp": 7167,
    "新鲜": 7168,
    "Data": 7169,
    "▁sometimes": 7170,
    "edom": 7171,
    "履行": 7172,
    "同比": 7173,
    "▁owners": 7174,
    "元素": 7175,
    "▁Los": 7176,
    "▁tim": 7177,
    "▁polic": 7178,
    "▁send": 7179,
    "▁sector": 7180,
    "森林": 7181,
    "IA": 7182,
    "军人": 7183,
    "黄金": 7184,
    "人民币": 7185,
    "Don": 7186,
    "eared": 7187,
    "▁Plan": 7188,
    "▁interested": 7189,
    "中考": 7190,
    "▁completely": 7191,
    "抗疫": 7192,
    "华为": 7193,
    "▁Every": 7194,
    "▁occur": 7195,
    "mail": 7196,
    "▁opening": 7197,
    "养生": 7198,
    "满意": 7199,
    "指挥部": 7200,
    "带领": 7201,
    "▁altern": 7202,
    "▁sale": 7203,
    "否则": 7204,
    "真正的": 7205,
    "内蒙古": 7206,
    "ait": 7207,
    "▁partner": 7208,
    "▁Bill": 7209,
    "eting": 7210,
    "▁pull": 7211,
    "▁France": 7212,
    "▁floor": 7213,
    "andemic": 7214,
    "ously": 7215,
    "一致": 7216,
    "氛围": 7217,
    "呈现": 7218,
    "anned": 7219,
    "病人": 7220,
    "共享": 7221,
    "▁applications": 7222,
    "PC": 7223,
    "▁names": 7224,
    "居家": 7225,
    "紧张": 7226,
    "▁River": 7227,
    "Int": 7228,
    "▁»": 7229,
    "▁sun": 7230,
    "Mod": 7231,
    "想象": 7232,
    "SU": 7233,
    "▁artists": 7234,
    "更好的": 7235,
    "▁spread": 7236,
    "出院": 7237,
    "原文": 7238,
    "▁Mat": 7239,
    "ji": 7240,
    "ria": 7241,
    "心情": 7242,
    "ounds": 7243,
    "osition": 7244,
    "看起来": 7245,
    "苹果": 7246,
    "太多": 7247,
    "说话": 7248,
    "流动": 7249,
    "top": 7250,
    "edia": 7251,
    "▁operations": 7252,
    "▁benefit": 7253,
    "ampionship": 7254,
    "▁Under": 7255,
    "▁fix": 7256,
    "],": 7257,
    "▁Mo": 7258,
    "▁vehicle": 7259,
    "局长": 7260,
    "▁highest": 7261,
    "的方法": 7262,
    "▁knew": 7263,
    "xx": 7264,
    "▁Sl": 7265,
    "大利": 7266,
    "层次": 7267,
    "▁Miss": 7268,
    "igr": 7269,
    "isation": 7270,
    "▁insurance": 7271,
    "▁citiz": 7272,
    "▁UN": 7273,
    "出发": 7274,
    "▁continues": 7275,
    "物品": 7276,
    "不在": 7277,
    "功效": 7278,
    "▁lov": 7279,
    "一是": 7280,
    "▁cert": 7281,
    "iny": 7282,
    "电脑": 7283,
    "信用": 7284,
    "付出": 7285,
    "▁African": 7286,
    "ien": 7287,
    "▁jobs": 7288,
    "▁dram": 7289,
    "▁Sub": 7290,
    "arant": 7291,
    "pri": 7292,
    "回答": 7293,
    "prof": 7294,
    "振兴": 7295,
    "足够": 7296,
    "高铁": 7297,
    "▁smart": 7298,
    "对此": 7299,
    "▁stock": 7300,
    "罗斯": 7301,
    "▁max": 7302,
    "通告": 7303,
    "会在": 7304,
    "▁critical": 7305,
    "FL": 7306,
    "▁overall": 7307,
    "Fr": 7308,
    "Over": 7309,
    "well": 7310,
    "point": 7311,
    "等方面": 7312,
    "▁Policy": 7313,
    "lands": 7314,
    "支撑": 7315,
    "出门": 7316,
    "look": 7317,
    "Te": 7318,
    "▁voice": 7319,
    "纪委": 7320,
    "erry": 7321,
    "ifying": 7322,
    "航空": 7323,
    "agram": 7324,
    "▁conv": 7325,
    "嫌疑人": 7326,
    "之中": 7327,
    "首次": 7328,
    "关节": 7329,
    "apter": 7330,
    "秩序": 7331,
    "overy": 7332,
    "atab": 7333,
    "▁pm": 7334,
    "独特": 7335,
    "▁door": 7336,
    "▁Other": 7337,
    "一张": 7338,
    "战斗": 7339,
    "▁Hill": 7340,
    "解读": 7341,
    "▁cancer": 7342,
    "造型": 7343,
    "十四": 7344,
    "▁senior": 7345,
    "▁sites": 7346,
    "Do": 7347,
    "▁values": 7348,
    "▁surround": 7349,
    "▁hundred": 7350,
    "▁movement": 7351,
    "热情": 7352,
    "在这个": 7353,
    "▁fine": 7354,
    "oma": 7355,
    "创作": 7356,
    "state": 7357,
    "似乎": 7358,
    "允许": 7359,
    "前的": 7360,
    "▁difference": 7361,
    "▁peace": 7362,
    "itely": 7363,
    "Go": 7364,
    "无数": 7365,
    "▁produced": 7366,
    "▁status": 7367,
    "▁condition": 7368,
    "陪伴": 7369,
    "▁Web": 7370,
    "ady": 7371,
    "治愈": 7372,
    "直到": 7373,
    "流量": 7374,
    "试验": 7375,
    "Me": 7376,
    "▁mill": 7377,
    "▁IS": 7378,
    "也在": 7379,
    "▁Christian": 7380,
    "用地": 7381,
    "▁followed": 7382,
    "ius": 7383,
    "▁audience": 7384,
    "图书": 7385,
    "▁leadership": 7386,
    "▁scene": 7387,
    "星期": 7388,
    "unte": 7389,
    "▁miles": 7390,
    "▁Community": 7391,
    "▁helps": 7392,
    "▁songs": 7393,
    "▁Pet": 7394,
    "气质": 7395,
    "的原因": 7396,
    "副主任": 7397,
    "好看": 7398,
    "▁obtain": 7399,
    "▁residents": 7400,
    "大学生": 7401,
    "观众": 7402,
    "物流": 7403,
    "▁thinking": 7404,
    "此时": 7405,
    "解放": 7406,
    "热点": 7407,
    "的人员": 7408,
    "yan": 7409,
    "▁lay": 7410,
    "IR": 7411,
    "▁apply": 7412,
    "明天": 7413,
    "也很": 7414,
    "固定": 7415,
    "vention": 7416,
    "▁passed": 7417,
    "当中": 7418,
    "▁Mad": 7419,
    "▁Time": 7420,
    "LC": 7421,
    "Su": 7422,
    "▁spot": 7423,
    "▁existing": 7424,
    "丈夫": 7425,
    "▁Scott": 7426,
    "▁Arts": 7427,
    "认证": 7428,
    "观看": 7429,
    "▁Hot": 7430,
    "▁du": 7431,
    "表面": 7432,
    "的那": 7433,
    "roud": 7434,
    "▁prec": 7435,
    "▁profession": 7436,
    "▁church": 7437,
    "levision": 7438,
    "gency": 7439,
    "消化": 7440,
    "　,": 7441,
    "▁die": 7442,
    "iately": 7443,
    "诊断": 7444,
    "▁Bra": 7445,
    "▁activity": 7446,
    "涉嫌": 7447,
    "rd": 7448,
    "省级": 7449,
    "的孩子": 7450,
    "营造": 7451,
    "央视": 7452,
    "uing": 7453,
    "事务": 7454,
    "▁lands": 7455,
    "▁responsible": 7456,
    "科目": 7457,
    "ano": 7458,
    "金额": 7459,
    "standing": 7460,
    "iec": 7461,
    "中国的": 7462,
    "不一样": 7463,
    "▁cru": 7464,
    "▁doll": 7465,
    "防范": 7466,
    "ula": 7467,
    "▁Sun": 7468,
    "环保": 7469,
    "吃饭": 7470,
    "iar": 7471,
    "例如": 7472,
    "iling": 7473,
    "orthern": 7474,
    "社保": 7475,
    "▁shall": 7476,
    "MS": 7477,
    "就算": 7478,
    "▁Angeles": 7479,
    "▁middle": 7480,
    "大概": 7481,
    "▁frequ": 7482,
    "手续": 7483,
    "▁Ham": 7484,
    "聘用": 7485,
    "痛苦": 7486,
    "▁Design": 7487,
    "违反": 7488,
    "尽快": 7489,
    "信心": 7490,
    "同步": 7491,
    "▁completed": 7492,
    "是有": 7493,
    "防治": 7494,
    "▁purpose": 7495,
    "超级": 7496,
    "规律": 7497,
    "人力资源": 7498,
    "大众": 7499,
    "▁strategy": 7500,
    "▁vote": 7501,
    "▁brother": 7502,
    "▁offered": 7503,
    "▁architect": 7504,
    "美术": 7505,
    "护理": 7506,
    "▁extrem": 7507,
    "▁ge": 7508,
    "▁offering": 7509,
    "works": 7510,
    "辖区": 7511,
    "写作": 7512,
    "▁Aut": 7513,
    "看来": 7514,
    "semb": 7515,
    "ini": 7516,
    "你会": 7517,
    "含有": 7518,
    "脂肪": 7519,
    "uration": 7520,
    "路段": 7521,
    "给我": 7522,
    "▁purchase": 7523,
    "▁double": 7524,
    "引领": 7525,
    "▁bur": 7526,
    "from": 7527,
    "iment": 7528,
    "同意": 7529,
    "▁novel": 7530,
    "回来": 7531,
    "ademic": 7532,
    "▁Kore": 7533,
    "agon": 7534,
    "带来的": 7535,
    "广东省": 7536,
    "▁dang": 7537,
    "▁Social": 7538,
    "纪律": 7539,
    "▁attend": 7540,
    "df": 7541,
    "相同": 7542,
    "同事": 7543,
    "▁cris": 7544,
    "▁aim": 7545,
    "日下午": 7546,
    "▁Hel": 7547,
    "▁Then": 7548,
    "园区": 7549,
    "丰富的": 7550,
    "尽管": 7551,
    "IF": 7552,
    "ped": 7553,
    "才会": 7554,
    "▁Free": 7555,
    "出售": 7556,
    "东方": 7557,
    "▁load": 7558,
    "身体健康": 7559,
    "▁reduce": 7560,
    "▁sch": 7561,
    "▁transfer": 7562,
    "▁weekend": 7563,
    "构建": 7564,
    "天天": 7565,
    "▁Apple": 7566,
    "想法": 7567,
    "▁Cup": 7568,
    "甘肃": 7569,
    "▁virt": 7570,
    "orney": 7571,
    "校长": 7572,
    "▁prices": 7573,
    "所得": 7574,
    "▁refer": 7575,
    "批准": 7576,
    "▁Sum": 7577,
    "无症状": 7578,
    "efore": 7579,
    "教材": 7580,
    "▁entertain": 7581,
    "刑事": 7582,
    "▁anti": 7583,
    "▁powerful": 7584,
    "▁photo": 7585,
    "▁advert": 7586,
    "配置": 7587,
    "样子": 7588,
    "指数": 7589,
    "▁feet": 7590,
    "▁compared": 7591,
    "Why": 7592,
    "▁Central": 7593,
    "▁sem": 7594,
    "社交": 7595,
    "pects": 7596,
    "二是": 7597,
    "▁grant": 7598,
    "▁Lead": 7599,
    "无人": 7600,
    "遵守": 7601,
    "二手": 7602,
    "▁helping": 7603,
    "▁Union": 7604,
    "这两": 7605,
    "reate": 7606,
    "▁Rem": 7607,
    "▁throw": 7608,
    "▁reb": 7609,
    "▁mer": 7610,
    "其它": 7611,
    "ер": 7612,
    "▁rates": 7613,
    "▁wall": 7614,
    "平衡": 7615,
    "ette": 7616,
    "Next": 7617,
    "▁conference": 7618,
    "为你": 7619,
    "▁false": 7620,
    "▁note": 7621,
    "▁Micro": 7622,
    "rang": 7623,
    "心中": 7624,
    "▁basis": 7625,
    "期的": 7626,
    "▁trend": 7627,
    "▁demonstr": 7628,
    "▁Sol": 7629,
    "OM": 7630,
    "放松": 7631,
    "▁joined": 7632,
    "▁trip": 7633,
    "▁Russia": 7634,
    "而不": 7635,
    "中间": 7636,
    "BS": 7637,
    "精选": 7638,
    "▁requirements": 7639,
    "го": 7640,
    "信号": 7641,
    "UL": 7642,
    "▁arrest": 7643,
    "财产": 7644,
    "订阅": 7645,
    "购物": 7646,
    "地位": 7647,
    "等级": 7648,
    "蓝色": 7649,
    "PD": 7650,
    "inner": 7651,
    "▁Mont": 7652,
    "ynam": 7653,
    "zer": 7654,
    "▁researc": 7655,
    "▁journey": 7656,
    "有个": 7657,
    "可见": 7658,
    "▁talent": 7659,
    "维生素": 7660,
    "▁charge": 7661,
    "山区": 7662,
    "itude": 7663,
    "▁happened": 7664,
    "\");": 7665,
    "Up": 7666,
    "▁lines": 7667,
    "adian": 7668,
    "▁Even": 7669,
    "医护": 7670,
    "▁picture": 7671,
    "贵的": 7672,
    "发出": 7673,
    "跟着": 7674,
    "▁Human": 7675,
    "ivery": 7676,
    "usband": 7677,
    "▁weight": 7678,
    "▁spirit": 7679,
    "▁paint": 7680,
    "aud": 7681,
    "imal": 7682,
    "▁advant": 7683,
    "▁train": 7684,
    "总体": 7685,
    "注重": 7686,
    "▁Tor": 7687,
    "▁Pri": 7688,
    "▁Econom": 7689,
    "▁Show": 7690,
    "▁Week": 7691,
    "辈子": 7692,
    "ctors": 7693,
    "▁although": 7694,
    "▁exactly": 7695,
    "▁except": 7696,
    "▁Series": 7697,
    "道德": 7698,
    "肌肉": 7699,
    "▁establish": 7700,
    "retary": 7701,
    "ruit": 7702,
    "▁Jo": 7703,
    "填报": 7704,
    "转发": 7705,
    "很容易": 7706,
    "ulf": 7707,
    "周岁": 7708,
    "▁sort": 7709,
    "Add": 7710,
    "lo": 7711,
    "是最": 7712,
    "type": 7713,
    "▁myself": 7714,
    "▁hour": 7715,
    "低于": 7716,
    "▁Global": 7717,
    "▁ST": 7718,
    "岁月": 7719,
    "新冠肺炎疫情": 7720,
    "▁primary": 7721,
    "▁Virgin": 7722,
    "▁Chicago": 7723,
    "含量": 7724,
    "▁gun": 7725,
    "为准": 7726,
    "ala": 7727,
    "胜利": 7728,
    "董事": 7729,
    "wise": 7730,
    "落地": 7731,
    "▁structure": 7732,
    "被告": 7733,
    "版权归原作者所有": 7734,
    "有很多": 7735,
    "读者": 7736,
    "▁enh": 7737,
    "快递": 7738,
    "▁fear": 7739,
    "辽宁": 7740,
    "Ed": 7741,
    "▁central": 7742,
    "构成": 7743,
    "新型冠状病毒感染": 7744,
    "缴纳": 7745,
    "解析": 7746,
    "日期": 7747,
    "▁poll": 7748,
    "▁competition": 7749,
    "test": 7750,
    "▁Ins": 7751,
    "▁immediately": 7752,
    "论文": 7753,
    "洗手": 7754,
    "服务中心": 7755,
    "留下": 7756,
    "回应": 7757,
    "ressed": 7758,
    "path": 7759,
    "anda": 7760,
    "分子": 7761,
    "▁pressure": 7762,
    "乘坐": 7763,
    "疾控": 7764,
    "商家": 7765,
    "▁certainly": 7766,
    "uled": 7767,
    "身材": 7768,
    "includ": 7769,
    "ervice": 7770,
    "▁associated": 7771,
    "照顾": 7772,
    "▁comments": 7773,
    "▁pen": 7774,
    "▁nom": 7775,
    "antly": 7776,
    "▁rent": 7777,
    "▁void": 7778,
    "▁alone": 7779,
    "成为了": 7780,
    "equ": 7781,
    "公安机关": 7782,
    "至今": 7783,
    "▁famous": 7784,
    "可能是": 7785,
    "从来": 7786,
    "▁Engine": 7787,
    "▁greater": 7788,
    "Phone": 7789,
    "矛盾": 7790,
    "▁Fund": 7791,
    "大小": 7792,
    "接到": 7793,
    "road": 7794,
    "▁www": 7795,
    "早安": 7796,
    "($": 7797,
    "门口": 7798,
    "witch": 7799,
    "▁posted": 7800,
    "▁scen": 7801,
    "命运": 7802,
    "▁Technology": 7803,
    "▁vs": 7804,
    "▁que": 7805,
    "职务": 7806,
    "不出": 7807,
    "inate": 7808,
    "▁beg": 7809,
    "▁station": 7810,
    "物理": 7811,
    "搜索": 7812,
    "都没有": 7813,
    "asy": 7814,
    "疑似": 7815,
    "Now": 7816,
    "▁killed": 7817,
    "▁partnership": 7818,
    "ademy": 7819,
    "nergy": 7820,
    "▁supply": 7821,
    "依旧": 7822,
    "xy": 7823,
    "小心": 7824,
    "深化": 7825,
    "▁records": 7826,
    "▁Robert": 7827,
    "▁opened": 7828,
    "密切接触": 7829,
    "俄罗斯": 7830,
    "放入": 7831,
    "aming": 7832,
    "北京市": 7833,
    "来看看": 7834,
    "考点": 7835,
    "账户": 7836,
    "装备": 7837,
    "▁despite": 7838,
    "聚焦": 7839,
    "▁Tur": 7840,
    "etic": 7841,
    "▁homes": 7842,
    "▁nice": 7843,
    "演员": 7844,
    "About": 7845,
    "▁retail": 7846,
    "▁error": 7847,
    "▁developing": 7848,
    "竟然": 7849,
    "等奖": 7850,
    "停止": 7851,
    "icks": 7852,
    "担任": 7853,
    "orter": 7854,
    "bol": 7855,
    "我就": 7856,
    "▁manager": 7857,
    "estic": 7858,
    "上升": 7859,
    "▁photos": 7860,
    "clusive": 7861,
    "仅供": 7862,
    "▁calls": 7863,
    "群体": 7864,
    "起了": 7865,
    "医师": 7866,
    "igration": 7867,
    "▁Bi": 7868,
    "当年": 7869,
    "▁models": 7870,
    "▁Brown": 7871,
    "▁Elect": 7872,
    "我想": 7873,
    "▁cry": 7874,
    "党组": 7875,
    "到达": 7876,
    "▁rob": 7877,
    "部位": 7878,
    "逐步": 7879,
    "isf": 7880,
    "eline": 7881,
    "魅力": 7882,
    "▁gra": 7883,
    "学术": 7884,
    "也不会": 7885,
    "▁measure": 7886,
    "antic": 7887,
    "决策": 7888,
    "疼痛": 7889,
    "▁previously": 7890,
    "▁Grand": 7891,
    "▁agreement": 7892,
    "无论是": 7893,
    "going": 7894,
    "发送": 7895,
    "igan": 7896,
    "▁claims": 7897,
    "▁daughter": 7898,
    "▁films": 7899,
    "行驶": 7900,
    "▁produce": 7901,
    "van": 7902,
    "成交": 7903,
    "退役": 7904,
    "▁pandemic": 7905,
    "bert": 7906,
    "室内": 7907,
    "完美": 7908,
    "道理": 7909,
    "▁temper": 7910,
    "▁Family": 7911,
    "打印": 7912,
    "▁Well": 7913,
    "pective": 7914,
    "▁devices": 7915,
    "贸易": 7916,
    "orial": 7917,
    "离婚": 7918,
    "Ob": 7919,
    "▁client": 7920,
    "▁coach": 7921,
    "▁thousands": 7922,
    "清晰": 7923,
    "纳入": 7924,
    "登录": 7925,
    "▁Data": 7926,
    "▁appropri": 7927,
    "▁Germany": 7928,
    "▁context": 7929,
    "背后": 7930,
    "Dr": 7931,
    "大幅": 7932,
    "ocol": 7933,
    "地理": 7934,
    "定位": 7935,
    "机器": 7936,
    "▁shown": 7937,
    "类似": 7938,
    "签订": 7939,
    "itors": 7940,
    "LO": 7941,
    "量的": 7942,
    "▁push": 7943,
    "珍惜": 7944,
    "▁Information": 7945,
    "▁warm": 7946,
    "▁Sk": 7947,
    "▁letter": 7948,
    "▁administration": 7949,
    "▁income": 7950,
    "▁Let": 7951,
    "▁Offic": 7952,
    "▁il": 7953,
    "▁Frank": 7954,
    "▁propos": 7955,
    "条例": 7956,
    "党建": 7957,
    "vere": 7958,
    "SP": 7959,
    "▁setting": 7960,
    "问题的": 7961,
    "▁spend": 7962,
    "CA": 7963,
    "的东西": 7964,
    "实际上": 7965,
    "▁pet": 7966,
    "▁Div": 7967,
    "▁launched": 7968,
    "显得": 7969,
    "sm": 7970,
    "▁reasons": 7971,
    "▁chem": 7972,
    "设立": 7973,
    "CE": 7974,
    "rad": 7975,
    "▁independent": 7976,
    "~　": 7977,
    "▁Iran": 7978,
    "These": 7979,
    "人民群众": 7980,
    "irection": 7981,
    "imb": 7982,
    "过来": 7983,
    "▁protection": 7984,
    "ENT": 7985,
    "大赛": 7986,
    "合适": 7987,
    "gar": 7988,
    "第一个": 7989,
    "itchen": 7990,
    "▁incred": 7991,
    "▁views": 7992,
    "bour": 7993,
    "▁excellent": 7994,
    "pat": 7995,
    "夏天": 7996,
    "印象": 7997,
    "▁mur": 7998,
    "季度": 7999,
    "Can": 8000,
    "▁wait": 8001,
    "知名": 8002,
    "▁passion": 8003,
    "▁Rad": 8004,
    "▁straight": 8005,
    "▁opin": 8006,
    "MP": 8007,
    "▁pages": 8008,
    "▁Team": 8009,
    "领导小组": 8010,
    "▁Const": 8011,
    "▁EU": 8012,
    "ena": 8013,
    "rapy": 8014,
    "▁Centre": 8015,
    "ocation": 8016,
    "SA": 8017,
    "电池": 8018,
    "编制": 8019,
    "姐姐": 8020,
    "祖国": 8021,
    "节日": 8022,
    "补助": 8023,
    "▁Av": 8024,
    "安全生产": 8025,
    "的感觉": 8026,
    "OD": 8027,
    "▁Internet": 8028,
    "怎么办": 8029,
    "▁Sil": 8030,
    "保健": 8031,
    "▁Rights": 8032,
    "学生的": 8033,
    "现在的": 8034,
    "空调": 8035,
    "地块": 8036,
    "出现了": 8037,
    "roy": 8038,
    "▁cities": 8039,
    "▁Tre": 8040,
    "携带": 8041,
    "▁loved": 8042,
    "url": 8043,
    "性和": 8044,
    "▁reality": 8045,
    "▁Det": 8046,
    "▁funds": 8047,
    "▁presented": 8048,
    "▁entry": 8049,
    "▁executive": 8050,
    "▁creative": 8051,
    "▁•": 8052,
    "给了": 8053,
    "▁advice": 8054,
    "常态": 8055,
    "▁rank": 8056,
    "itness": 8057,
    "当你": 8058,
    "ework": 8059,
    "▁estim": 8060,
    "writ": 8061,
    "▁struct": 8062,
    "封闭": 8063,
    "附件": 8064,
    "▁Jul": 8065,
    "erences": 8066,
    "▁violence": 8067,
    "▁Form": 8068,
    "Americ": 8069,
    "热爱": 8070,
    "龙江": 8071,
    "▁environmental": 8072,
    "known": 8073,
    "▁parties": 8074,
    "情况下": 8075,
    "一批": 8076,
    "利润": 8077,
    "报警": 8078,
    "▁writer": 8079,
    "团结": 8080,
    "▁Festival": 8081,
    "ipl": 8082,
    "▁и": 8083,
    "ita": 8084,
    "onents": 8085,
    "▁cars": 8086,
    "肿瘤": 8087,
    "休闲": 8088,
    "▁Step": 8089,
    "▁master": 8090,
    "da": 8091,
    "危害": 8092,
    "突发": 8093,
    "lt": 8094,
    "▁eth": 8095,
    "▁Please": 8096,
    "▁Vis": 8097,
    "can": 8098,
    "众多": 8099,
    "高速公路": 8100,
    "ipe": 8101,
    "教育局": 8102,
    "iance": 8103,
    "▁Ir": 8104,
    "ato": 8105,
    "号线": 8106,
    "▁Security": 8107,
    "▁cultural": 8108,
    "人都": 8109,
    "纳税": 8110,
    "gn": 8111,
    "采访": 8112,
    "不动": 8113,
    "到位": 8114,
    "▁OF": 8115,
    "ieces": 8116,
    "风险地区": 8117,
    "▁fan": 8118,
    "▁truly": 8119,
    "Here": 8120,
    "山市": 8121,
    "来源于网络": 8122,
    "和社会": 8123,
    "friend": 8124,
    "▁chief": 8125,
    "▁raised": 8126,
    "爆发": 8127,
    "高等": 8128,
    "姓名": 8129,
    "oms": 8130,
    "一级": 8131,
    "▁Russian": 8132,
    "▁Americans": 8133,
    "组合": 8134,
    "每月": 8135,
    "▁About": 8136,
    "▁Wil": 8137,
    "表演": 8138,
    "▁apprec": 8139,
    "老公": 8140,
    "对比": 8141,
    "▁feeling": 8142,
    "Am": 8143,
    "atively": 8144,
    "▁signed": 8145,
    "实习": 8146,
    "ias": 8147,
    "▁van": 8148,
    "台湾": 8149,
    "通风": 8150,
    "▁Chief": 8151,
    "转移": 8152,
    "强烈": 8153,
    "网络配图网络配图网络配图网络配图": 8154,
    "ba": 8155,
    "▁normal": 8156,
    "pack": 8157,
    "▁afford": 8158,
    "错过": 8159,
    "▁connection": 8160,
    "新华": 8161,
    "电商": 8162,
    "反而": 8163,
    "大力": 8164,
    "▁score": 8165,
    "路口": 8166,
    "看见": 8167,
    "▁Bet": 8168,
    "▁machine": 8169,
    "开通": 8170,
    "欣赏": 8171,
    "近年来": 8172,
    "▁poor": 8173,
    "▁Priv": 8174,
    "一个月": 8175,
    "彼此": 8176,
    "概念": 8177,
    "站在": 8178,
    "气象": 8179,
    "上线": 8180,
    "▁experiences": 8181,
    "审批": 8182,
    "世间": 8183,
    "td": 8184,
    "px": 8185,
    "▁Love": 8186,
    "▁lab": 8187,
    "▁Mass": 8188,
    "▁dedicated": 8189,
    "▁guid": 8190,
    "不得不": 8191,
    "积累": 8192,
    "CL": 8193,
    "▁skin": 8194,
    "的一种": 8195,
    "▁capacity": 8196,
    "public": 8197,
    "很好的": 8198,
    "推送": 8199,
    "花园": 8200,
    "至于": 8201,
    "指定": 8202,
    "知识点": 8203,
    "aters": 8204,
    "allery": 8205,
    "edu": 8206,
    "解除": 8207,
    "管理局": 8208,
    "opping": 8209,
    "民生": 8210,
    "入学": 8211,
    "▁standards": 8212,
    "▁Down": 8213,
    "打卡": 8214,
    "Rep": 8215,
    "ella": 8216,
    "周围": 8217,
    "iminal": 8218,
    "▁guide": 8219,
    "头发": 8220,
    "也没": 8221,
    "性能": 8222,
    "▁driving": 8223,
    "▁regarding": 8224,
    "你是": 8225,
    "▁Power": 8226,
    "▁majority": 8227,
    "▁wish": 8228,
    "和谐": 8229,
    "▁Mount": 8230,
    "别人的": 8231,
    "的要求": 8232,
    "▁compl": 8233,
    "▁adopt": 8234,
    "▁Atl": 8235,
    "azz": 8236,
    "According": 8237,
    "▁List": 8238,
    "▁basic": 8239,
    "▁Lake": 8240,
    "▁Enter": 8241,
    "▁patient": 8242,
    "▁Wood": 8243,
    "▁Town": 8244,
    "▁Party": 8245,
    "官网": 8246,
    "缺乏": 8247,
    "部长": 8248,
    "▁decades": 8249,
    "了吗": 8250,
    "▁update": 8251,
    "ideos": 8252,
    "▁eyes": 8253,
    "好友": 8254,
    "▁psych": 8255,
    "户籍": 8256,
    "▁Vict": 8257,
    "dule": 8258,
    "eful": 8259,
    "联系方式": 8260,
    "sk": 8261,
    "ario": 8262,
    "▁proud": 8263,
    "违法行为": 8264,
    "▁Iss": 8265,
    "吉林": 8266,
    "ternal": 8267,
    "现有": 8268,
    "▁runs": 8269,
    "求职": 8270,
    "▁rare": 8271,
    "行的": 8272,
    "尝试": 8273,
    "NO": 8274,
    "房间": 8275,
    "一片": 8276,
    "展开": 8277,
    "aling": 8278,
    "两年": 8279,
    "工人": 8280,
    "▁Mer": 8281,
    "▁files": 8282,
    "立刻": 8283,
    "active": 8284,
    "外的": 8285,
    "eless": 8286,
    "то": 8287,
    "产权": 8288,
    "▁о": 8289,
    "的主要": 8290,
    "学期": 8291,
    "精品": 8292,
    "▁Head": 8293,
    "聊天": 8294,
    "▁tit": 8295,
    "爱心": 8296,
    "大师": 8297,
    "udd": 8298,
    "▁Invest": 8299,
    "基因": 8300,
    "▁announce": 8301,
    "▁micro": 8302,
    "▁Louis": 8303,
    "▁Many": 8304,
    "不多": 8305,
    "▁eye": 8306,
    "▁agency": 8307,
    "inem": 8308,
    "cul": 8309,
    "bar": 8310,
    "伟大": 8311,
    "thlet": 8312,
    "asket": 8313,
    "失败": 8314,
    "▁husband": 8315,
    "▁vision": 8316,
    "原价": 8317,
    "▁species": 8318,
    "▁facilities": 8319,
    "▁policies": 8320,
    "anging": 8321,
    "城镇": 8322,
    "abilities": 8323,
    "格局": 8324,
    "迎来": 8325,
    "素材": 8326,
    "▁definitely": 8327,
    "博物": 8328,
    "特征": 8329,
    "▁esc": 8330,
    "▁mechan": 8331,
    "反馈": 8332,
    "监察": 8333,
    "条件的": 8334,
    "坚守": 8335,
    "▁aren": 8336,
    "ooth": 8337,
    "atabase": 8338,
    "▁stuff": 8339,
    "路线": 8340,
    "电动": 8341,
    "▁disapp": 8342,
    "▁experienced": 8343,
    "男女": 8344,
    "联盟": 8345,
    "▁testing": 8346,
    "actions": 8347,
    "失去": 8348,
    "▁cash": 8349,
    "▁princip": 8350,
    "▁talking": 8351,
    "世界上": 8352,
    "▁trial": 8353,
    "orrow": 8354,
    "lymp": 8355,
    "修复": 8356,
    "证据": 8357,
    "▁map": 8358,
    "▁crisis": 8359,
    "德国": 8360,
    "年代": 8361,
    "山东省": 8362,
    "▁Tour": 8363,
    "▁gone": 8364,
    "的故事": 8365,
    "薪资": 8366,
    "加速": 8367,
    "队员": 8368,
    "校区": 8369,
    "▁Mel": 8370,
    "ban": 8371,
    "▁focused": 8372,
    "▁pattern": 8373,
    "uilding": 8374,
    "▁district": 8375,
    "▁Peter": 8376,
    "爱你": 8377,
    "的水": 8378,
    "公开招聘": 8379,
    "▁Thomas": 8380,
    "上课": 8381,
    "▁emb": 8382,
    "▁seeing": 8383,
    "便利": 8384,
    "▁larger": 8385,
    "▁looked": 8386,
    "▁Water": 8387,
    "▁ang": 8388,
    "▁figure": 8389,
    "返校": 8390,
    "无症状感染者": 8391,
    "▁proced": 8392,
    "▁elements": 8393,
    "aught": 8394,
    "▁absol": 8395,
    "▁initial": 8396,
    "权利": 8397,
    "军事": 8398,
    "uries": 8399,
    "kg": 8400,
    "公司的": 8401,
    "▁exerc": 8402,
    "简历": 8403,
    "授权": 8404,
    "********": 8405,
    "iler": 8406,
    "党支部": 8407,
    "常常": 8408,
    "不开": 8409,
    "▁Earth": 8410,
    "▁Why": 8411,
    "Car": 8412,
    "▁sy": 8413,
    "韩国": 8414,
    "opyright": 8415,
    "范围内": 8416,
    "▁Valley": 8417,
    "▁couldn": 8418,
    "作文": 8419,
    "cell": 8420,
    "▁▁▁▁▁▁▁▁▁▁": 8421,
    "▁becoming": 8422,
    "对外": 8423,
    "的学生": 8424,
    "▁Johnson": 8425,
    "”(": 8426,
    "▁Report": 8427,
    "葡萄": 8428,
    "辛苦": 8429,
    "phone": 8430,
    "▁harm": 8431,
    "▁Since": 8432,
    "▁essential": 8433,
    "apers": 8434,
    "▁generation": 8435,
    "▁owner": 8436,
    "▁Gen": 8437,
    "维持": 8438,
    "人事": 8439,
    "burg": 8440,
    "▁Oh": 8441,
    "漂亮": 8442,
    "难度": 8443,
    "抖音": 8444,
    "osh": 8445,
    "riage": 8446,
    "高端": 8447,
    "▁pros": 8448,
    "▁Asia": 8449,
    "长时间": 8450,
    "▁experts": 8451,
    "舒服": 8452,
    "▁Western": 8453,
    "aste": 8454,
    "▁fant": 8455,
    "▁gain": 8456,
    "思路": 8457,
    "玻璃": 8458,
    "聪明": 8459,
    "保留": 8460,
    "工厂": 8461,
    "▁transl": 8462,
    "不见": 8463,
    "好像": 8464,
    "▁perhaps": 8465,
    "DP": 8466,
    "▁null": 8467,
    "level": 8468,
    "电梯": 8469,
    "Mar": 8470,
    "▁Er": 8471,
    "认可": 8472,
    "咳嗽": 8473,
    "▁hotel": 8474,
    "之下": 8475,
    "的机会": 8476,
    "▁unit": 8477,
    "craft": 8478,
    "大家都": 8479,
    "▁editor": 8480,
    "▁damage": 8481,
    "▁north": 8482,
    "ML": 8483,
    "▁solid": 8484,
    "string": 8485,
    "年底": 8486,
    "清理": 8487,
    "▁blue": 8488,
    "mary": 8489,
    "▁internet": 8490,
    "ogue": 8491,
    "▁showed": 8492,
    "▁length": 8493,
    "cher": 8494,
    "▁cat": 8495,
    "▁Bur": 8496,
    "▁End": 8497,
    "有时候": 8498,
    "给孩子": 8499,
    "办事": 8500,
    "十三": 8501,
    "不敢": 8502,
    "复产": 8503,
    "▁Medical": 8504,
    "▁sexual": 8505,
    "他说": 8506,
    "zen": 8507,
    "地的": 8508,
    "▁crow": 8509,
    "开发区": 8510,
    "▁eval": 8511,
    "男性": 8512,
    "▁sources": 8513,
    "night": 8514,
    "卫生健康": 8515,
    "▁described": 8516,
    "共有": 8517,
    "人心": 8518,
    "为何": 8519,
    "电视台": 8520,
    "可爱": 8521,
    "Comp": 8522,
    "贯彻落实": 8523,
    "▁appeared": 8524,
    "真是": 8525,
    "inger": 8526,
    "元的": 8527,
    "视觉": 8528,
    "▁Long": 8529,
    "部队": 8530,
    "Some": 8531,
    "▁repe": 8532,
    "pid": 8533,
    "是指": 8534,
    "扎实": 8535,
    "医学观察": 8536,
    "emporary": 8537,
    "entially": 8538,
    "玉米": 8539,
    "▁analy": 8540,
    "elligence": 8541,
    "▁committed": 8542,
    "我们要": 8543,
    "品种": 8544,
    "des": 8545,
    "▁thanks": 8546,
    "角色": 8547,
    "▁href": 8548,
    "此前": 8549,
    "▁department": 8550,
    "▁Also": 8551,
    "▁See": 8552,
    "▁Main": 8553,
    "that": 8554,
    "▁German": 8555,
    "▁laws": 8556,
    "网红": 8557,
    "▁Tim": 8558,
    "pping": 8559,
    "▁forces": 8560,
    "atin": 8561,
    "rc": 8562,
    "车的": 8563,
    "连接": 8564,
    "},": 8565,
    "心脏": 8566,
    "满满": 8567,
    "▁radio": 8568,
    "▁Awards": 8569,
    "▁Game": 8570,
    "表情": 8571,
    "修改": 8572,
    "▁winning": 8573,
    "开工": 8574,
    "便是": 8575,
    "▁Fre": 8576,
    "▁toward": 8577,
    "▁catch": 8578,
    "感恩": 8579,
    "车站": 8580,
    "人员的": 8581,
    "暂停": 8582,
    "unning": 8583,
    "进展": 8584,
    "院长": 8585,
    "▁reached": 8586,
    "专业的": 8587,
    "▁NY": 8588,
    "user": 8589,
    "▁sport": 8590,
    "▁steps": 8591,
    "区别": 8592,
    "ns": 8593,
    "▁south": 8594,
    "hab": 8595,
    "▁Ill": 8596,
    "▁Jose": 8597,
    "▁brain": 8598,
    "▁markets": 8599,
    "有趣": 8600,
    "浪费": 8601,
    "长沙": 8602,
    "”)": 8603,
    "周末": 8604,
    "▁Jud": 8605,
    "reek": 8606,
    "▁glass": 8607,
    "▁concerns": 8608,
    "不停": 8609,
    "引进": 8610,
    "段时间": 8611,
    "爱好": 8612,
    "三大": 8613,
    "ен": 8614,
    "试点": 8615,
    "ffee": 8616,
    "奉献": 8617,
    "hand": 8618,
    "▁weather": 8619,
    "基于": 8620,
    "▁closed": 8621,
    "▁Amazon": 8622,
    "▁occas": 8623,
    "▁accur": 8624,
    "▁Martin": 8625,
    "▁hair": 8626,
    "▁citizens": 8627,
    "▁Paris": 8628,
    "是对": 8629,
    "▁Special": 8630,
    "▁Mur": 8631,
    "新生": 8632,
    "▁rise": 8633,
    "▁caused": 8634,
    "▁Their": 8635,
    "lict": 8636,
    "欧洲": 8637,
    "atever": 8638,
    "oration": 8639,
    "市公安局": 8640,
    "▁mental": 8641,
    "▁Richard": 8642,
    "▁Nor": 8643,
    "▁healthy": 8644,
    "接下来": 8645,
    "现金": 8646,
    "▁Stat": 8647,
    "▁Mot": 8648,
    "黑色": 8649,
    "▁Den": 8650,
    "▁neighbor": 8651,
    "Rec": 8652,
    "两种": 8653,
    "▁learned": 8654,
    "破坏": 8655,
    "口腔": 8656,
    "ublished": 8657,
    "▁youth": 8658,
    "请联系删除": 8659,
    "▁fashion": 8660,
    "▁finished": 8661,
    "常委": 8662,
    "▁manufacture": 8663,
    "家中": 8664,
    "不上": 8665,
    "工作中": 8666,
    "的美": 8667,
    "使得": 8668,
    "cean": 8669,
    "▁kept": 8670,
    "HS": 8671,
    "isher": 8672,
    "▁Mov": 8673,
    "omet": 8674,
    "%;": 8675,
    "特朗": 8676,
    "▁driver": 8677,
    "收集": 8678,
    "value": 8679,
    "响应": 8680,
    "▁storage": 8681,
    "▁limit": 8682,
    "逻辑": 8683,
    "仔细": 8684,
    "一件": 8685,
    "板块": 8686,
    "ка": 8687,
    "▁brow": 8688,
    "▁practices": 8689,
    "▁impl": 8690,
    "预警": 8691,
    "aren": 8692,
    "essage": 8693,
    "ls": 8694,
    "▁volunte": 8695,
    "医疗机构": 8696,
    "▁Food": 8697,
    "▁Sports": 8698,
    "▁Windows": 8699,
    "我们将": 8700,
    "策略": 8701,
    "enses": 8702,
    "reland": 8703,
    "▁prison": 8704,
    "的行为": 8705,
    "▁trou": 8706,
    "▁faith": 8707,
    "ucky": 8708,
    "回忆": 8709,
    "年轻人": 8710,
    "▁transform": 8711,
    "Form": 8712,
    "▁approx": 8713,
    "▁drink": 8714,
    "▁adding": 8715,
    "▁Australian": 8716,
    "兄弟": 8717,
    "▁explore": 8718,
    "▁window": 8719,
    "▁technical": 8720,
    "餐厅": 8721,
    "▁anc": 8722,
    "生态环境": 8723,
    "▁Aff": 8724,
    "步骤": 8725,
    "西北": 8726,
    "表明": 8727,
    "▁older": 8728,
    "在中国": 8729,
    "小伙伴": 8730,
    "QQ": 8731,
    "pected": 8732,
    "听到": 8733,
    "ulty": 8734,
    "高质量发展": 8735,
    "的内容": 8736,
    "▁maybe": 8737,
    "obe": 8738,
    "▁Mexico": 8739,
    "▁Today": 8740,
    "DC": 8741,
    "实用": 8742,
    "▁extremely": 8743,
    "▁strength": 8744,
    "▁IT": 8745,
    "的学习": 8746,
    "▁chair": 8747,
    "▁meant": 8748,
    "究竟": 8749,
    "分布": 8750,
    "第六": 8751,
    "▁rac": 8752,
    "▁Arab": 8753,
    "▁delivery": 8754,
    "▁session": 8755,
    "▁Academy": 8756,
    "三角": 8757,
    "季节": 8758,
    "▁Spe": 8759,
    "▁Police": 8760,
    "玫瑰": 8761,
    "调节": 8762,
    "均为": 8763,
    "while": 8764,
    "转型": 8765,
    "▁restrict": 8766,
    "活力": 8767,
    "▁measures": 8768,
    "特朗普": 8769,
    "全身": 8770,
    "权威": 8771,
    "ola": 8772,
    "没想到": 8773,
    "▁Oper": 8774,
    "▁counter": 8775,
    "▁television": 8776,
    "news": 8777,
    "▁plays": 8778,
    "疫苗接种": 8779,
    "▁notice": 8780,
    "▁female": 8781,
    "政协": 8782,
    "抗击": 8783,
    "▁agree": 8784,
    "▁AP": 8785,
    "为大家": 8786,
    "学习教育": 8787,
    "护士": 8788,
    "▁Jim": 8789,
    "ups": 8790,
    "地下": 8791,
    "▁selected": 8792,
    "黑龙江": 8793,
    "财经": 8794,
    "外国": 8795,
    "月底": 8796,
    "周期": 8797,
    "▁*/": 8798,
    "ва": 8799,
    "对应": 8800,
    "iat": 8801,
    "’,": 8802,
    "▁Indust": 8803,
    "▁becomes": 8804,
    "进去": 8805,
    "不需要": 8806,
    "▁lock": 8807,
    "▁officer": 8808,
    "▁obvious": 8809,
    "▁Back": 8810,
    "军队": 8811,
    "温柔": 8812,
    "atically": 8813,
    "对待": 8814,
    "政法": 8815,
    "alled": 8816,
    "▁Network": 8817,
    "走向": 8818,
    "rid": 8819,
    "增值": 8820,
    "▁Energy": 8821,
    "asure": 8822,
    "▁surface": 8823,
    "Pr": 8824,
    "mes": 8825,
    "辅助": 8826,
    "▁rich": 8827,
    "法治": 8828,
    "▁numerous": 8829,
    "卫健": 8830,
    "用来": 8831,
    "工程师": 8832,
    "版本": 8833,
    "老年人": 8834,
    "▁`": 8835,
    "AG": 8836,
    "睡觉": 8837,
    "▁ban": 8838,
    "pan": 8839,
    "▁appears": 8840,
    "顾客": 8841,
    "消失": 8842,
    "atters": 8843,
    "▁brings": 8844,
    "▁Canadian": 8845,
    "host": 8846,
    "yer": 8847,
    "户型": 8848,
    "本来": 8849,
    "西南": 8850,
    "恋爱": 8851,
    "郑州": 8852,
    "osure": 8853,
    "xi": 8854,
    "uclear": 8855,
    "咖啡": 8856,
    "▁infrast": 8857,
    "▁operating": 8858,
    "▁forms": 8859,
    "河南省": 8860,
    "span": 8861,
    "医药": 8862,
    "▁spect": 8863,
    "家乡": 8864,
    "▁Film": 8865,
    "irmed": 8866,
    "▁fram": 8867,
    "而不是": 8868,
    "有多少": 8869,
    "▁requires": 8870,
    "illa": 8871,
    "▁actions": 8872,
    "飞机": 8873,
    "让他": 8874,
    "inct": 8875,
    "eds": 8876,
    "荣誉": 8877,
    "发票": 8878,
    "abin": 8879,
    "守护": 8880,
    "▁Lear": 8881,
    "▁thank": 8882,
    "%)": 8883,
    "忘记": 8884,
    "▁Royal": 8885,
    "请您": 8886,
    "▁traffic": 8887,
    "拓展": 8888,
    "och": 8889,
    "陆续": 8890,
    "或是": 8891,
    "const": 8892,
    "▁org": 8893,
    "press": 8894,
    "itage": 8895,
    "ili": 8896,
    "你要": 8897,
    "▁heavy": 8898,
    "HO": 8899,
    "rick": 8900,
    "▁researchers": 8901,
    "▁Jes": 8902,
    "一一": 8903,
    "XX": 8904,
    "还没有": 8905,
    "However": 8906,
    "▁Saf": 8907,
    "▁Land": 8908,
    "▁Virginia": 8909,
    "['": 8910,
    "康复": 8911,
    "iden": 8912,
    "ipping": 8913,
    "▁thr": 8914,
    "代谢": 8915,
    "▁Georg": 8916,
    "John": 8917,
    "prene": 8918,
    "带动": 8919,
    "▁returned": 8920,
    "负担": 8921,
    "▁cas": 8922,
    "kins": 8923,
    "▁easier": 8924,
    "强大": 8925,
    "▁sched": 8926,
    "头像": 8927,
    "▁Fire": 8928,
    "出台": 8929,
    "▁estate": 8930,
    "nel": 8931,
    "一次性": 8932,
    "oses": 8933,
    "onav": 8934,
    "必然": 8935,
    "合肥": 8936,
    "rics": 8937,
    "局部": 8938,
    "▁classic": 8939,
    "inations": 8940,
    "春天": 8941,
    "▁Who": 8942,
    "▁Fort": 8943,
    "口感": 8944,
    "海洋": 8945,
    "▁teaching": 8946,
    "▁street": 8947,
    "uit": 8948,
    "▁task": 8949,
    "ses": 8950,
    "▁finding": 8951,
    "的能力": 8952,
    "▁facility": 8953,
    "▁Olymp": 8954,
    "▁Obama": 8955,
    "每周": 8956,
    "plate": 8957,
    "▁controll": 8958,
    "全县": 8959,
    "预测": 8960,
    "▁actual": 8961,
    "achel": 8962,
    "财运": 8963,
    "重症": 8964,
    "fol": 8965,
    "ipped": 8966,
    "阳性": 8967,
    "▁cop": 8968,
    "让自己": 8969,
    "▁Wall": 8970,
    "▁battle": 8971,
    "▁decisions": 8972,
    "套餐": 8973,
    "lies": 8974,
    "oken": 8975,
    "监控": 8976,
    "iques": 8977,
    "▁instit": 8978,
    "▁movies": 8979,
    "unately": 8980,
    "可以在": 8981,
    "消除": 8982,
    "▁beat": 8983,
    "reprene": 8984,
    "长按识别": 8985,
    "要注意": 8986,
    "抓住": 8987,
    "▁ended": 8988,
    "实验室": 8989,
    "oria": 8990,
    "一人": 8991,
    "▁sleep": 8992,
    "说了": 8993,
    "▁shop": 8994,
    "▁girls": 8995,
    "bo": 8996,
    "abled": 8997,
    "▁memory": 8998,
    "▁advance": 8999,
    "策划": 9000,
    "片区": 9001,
    "看了": 9002,
    "ли": 9003,
    "oston": 9004,
    "一周": 9005,
    "clusion": 9006,
    "长江": 9007,
    "▁Library": 9008,
    "车主": 9009,
    "▁Joe": 9010,
    "▁Last": 9011,
    "侵犯": 9012,
    "▁Two": 9013,
    "心态": 9014,
    "携手": 9015,
    "▁presence": 9016,
    "▁vehicles": 9017,
    "▁amb": 9018,
    "▁%": 9019,
    "ani": 9020,
    "许可": 9021,
    "小程序": 9022,
    "印发": 9023,
    "一代": 9024,
    "▁border": 9025,
    "icians": 9026,
    "▁Bo": 9027,
    "▁contains": 9028,
    "▁noted": 9029,
    "用人": 9030,
    "气的": 9031,
    "▁investigation": 9032,
    "红包": 9033,
    "▁Cath": 9034,
    "氧化": 9035,
    "协助": 9036,
    "焦虑": 9037,
    "和平": 9038,
    "安置": 9039,
    "▁appeal": 9040,
    "就诊": 9041,
    "简直": 9042,
    "Last": 9043,
    "▁Justice": 9044,
    "乡村振兴": 9045,
    "点个": 9046,
    "保存": 9047,
    "▁Carolina": 9048,
    "野生": 9049,
    "▁core": 9050,
    "▁gar": 9051,
    "精心": 9052,
    "研究院": 9053,
    "下方二维码": 9054,
    "▁satisf": 9055,
    "举措": 9056,
    "lywood": 9057,
    "▁monitor": 9058,
    "▁methods": 9059,
    "▁PC": 9060,
    "较大": 9061,
    "perty": 9062,
    "▁Lee": 9063,
    "注明": 9064,
    "▁static": 9065,
    "罚款": 9066,
    "▁array": 9067,
    "市长": 9068,
    "▁links": 9069,
    "征收": 9070,
    "▁secure": 9071,
    "我在": 9072,
    "▁camera": 9073,
    "抓好": 9074,
    "▁rule": 9075,
    "重磅": 9076,
    "▁excited": 9077,
    "之路": 9078,
    "对你": 9079,
    "色彩": 9080,
    "file": 9081,
    "高达": 9082,
    "密切接触者": 9083,
    "othing": 9084,
    "都市": 9085,
    "▁plus": 9086,
    "▁university": 9087,
    "Posted": 9088,
    "房价": 9089,
    "分局": 9090,
    "▁graph": 9091,
    "简称": 9092,
    "Co": 9093,
    "的主": 9094,
    "海外": 9095,
    "▁direction": 9096,
    "▁resident": 9097,
    "▁minor": 9098,
    "▁Sand": 9099,
    "▁survey": 9100,
    "▁Organ": 9101,
    "Class": 9102,
    "便宜": 9103,
    "佩戴口罩": 9104,
    "▁debut": 9105,
    "];": 9106,
    "很少": 9107,
    "体内": 9108,
    "总经理": 9109,
    "▁multi": 9110,
    "说法": 9111,
    "Inst": 9112,
    "▁fourth": 9113,
    "融媒体": 9114,
    "▁gift": 9115,
    "▁brief": 9116,
    "ython": 9117,
    "后续": 9118,
    "bur": 9119,
    "▁Chris": 9120,
    "▁changing": 9121,
    "上去": 9122,
    "备案": 9123,
    "▁advoc": 9124,
    "gov": 9125,
    "灵活": 9126,
    "免责": 9127,
    "▁managed": 9128,
    "Time": 9129,
    "acks": 9130,
    "▁advantage": 9131,
    "零售": 9132,
    "▁truth": 9133,
    "▁instr": 9134,
    "济南": 9135,
    "融资": 9136,
    "差异": 9137,
    "度的": 9138,
    "▁Ireland": 9139,
    "厦门": 9140,
    "昨天": 9141,
    "andom": 9142,
    "▁factors": 9143,
    "▁TO": 9144,
    "的就是": 9145,
    "▁Som": 9146,
    "账号": 9147,
    "感动": 9148,
    "博物馆": 9149,
    "▁nine": 9150,
    "▁wonderful": 9151,
    "▁scale": 9152,
    "▁Islam": 9153,
    "经济社会": 9154,
    "▁Way": 9155,
    "以上的": 9156,
    "osis": 9157,
    "那种": 9158,
    "▁sharing": 9159,
    "东南": 9160,
    "▁Hospital": 9161,
    "这也是": 9162,
    "▁centre": 9163,
    "地球": 9164,
    "▁placed": 9165,
    "▁Commun": 9166,
    "▁According": 9167,
    "rate": 9168,
    "▁Test": 9169,
    "▁mist": 9170,
    "到来": 9171,
    "发病": 9172,
    "▁fuel": 9173,
    "别的": 9174,
    "▁Rev": 9175,
    "sembly": 9176,
    "▁supported": 9177,
    "一句": 9178,
    "后果": 9179,
    "普遍": 9180,
    "境外输入": 9181,
    "inating": 9182,
    "复工复产": 9183,
    "下册": 9184,
    "espite": 9185,
    "号码": 9186,
    "糖尿": 9187,
    "发布的": 9188,
    "index": 9189,
    "▁visitors": 9190,
    "\";": 9191,
    "▁musical": 9192,
    "并在": 9193,
    "交叉": 9194,
    "职场": 9195,
    "▁terror": 9196,
    "专注": 9197,
    "▁susp": 9198,
    "出席": 9199,
    "▁Di": 9200,
    "主要是": 9201,
    "eder": 9202,
    "Er": 9203,
    "人家": 9204,
    "企业的": 9205,
    "onavirus": 9206,
    "业绩": 9207,
    "画面": 9208,
    "inder": 9209,
    "最美": 9210,
    "原本": 9211,
    "▁▁▁▁▁▁▁▁▁▁▁▁▁▁▁▁▁▁▁▁": 9212,
    "▁appropriate": 9213,
    "agged": 9214,
    "▁finish": 9215,
    "▁During": 9216,
    "本书": 9217,
    "▁eventually": 9218,
    "释放": 9219,
    "Sub": 9220,
    "▁leaving": 9221,
    "了很多": 9222,
    "白色": 9223,
    "▁infrastructure": 9224,
    "under": 9225,
    "并非": 9226,
    "▁relevant": 9227,
    "景观": 9228,
    "▁showing": 9229,
    "桃花": 9230,
    "相处": 9231,
    "的肺炎": 9232,
    "Of": 9233,
    "▁drop": 9234,
    "还没": 9235,
    "方位": 9236,
    "▁failed": 9237,
    "idden": 9238,
    "Des": 9239,
    "转化": 9240,
    "▁visual": 9241,
    "很大的": 9242,
    "▁guarant": 9243,
    "青少年": 9244,
    "uke": 9245,
    "code": 9246,
    "▁injury": 9247,
    "osen": 9248,
    "▁articles": 9249,
    "前行": 9250,
    "▁academic": 9251,
    "▁nav": 9252,
    "▁Uk": 9253,
    "▁animals": 9254,
    "线索": 9255,
    "aven": 9256,
    "考证": 9257,
    "养成": 9258,
    "补偿": 9259,
    "alian": 9260,
    "▁operation": 9261,
    "▁knows": 9262,
    "▁commitment": 9263,
    "推荐阅读": 9264,
    "▁defense": 9265,
    "朋友们": 9266,
    "qq": 9267,
    "▁String": 9268,
    "我们会": 9269,
    "▁Old": 9270,
    "▁ir": 9271,
    "市政府": 9272,
    "▁documents": 9273,
    "ui": 9274,
    "gers": 9275,
    "当事": 9276,
    "anche": 9277,
    "▁Color": 9278,
    "给自己": 9279,
    "烦恼": 9280,
    "班主任": 9281,
    "OC": 9282,
    "▁pieces": 9283,
    "acific": 9284,
    "肌肤": 9285,
    "玩家": 9286,
    "▁Senate": 9287,
    "EP": 9288,
    "▁manage": 9289,
    "ultural": 9290,
    "十九": 9291,
    "慢性": 9292,
    "…　": 9293,
    "▁batter": 9294,
    "▁proposed": 9295,
    "遇见": 9296,
    "提供了": 9297,
    "▁Its": 9298,
    "ora": 9299,
    "Top": 9300,
    "Che": 9301,
    "ading": 9302,
    "惊喜": 9303,
    "Part": 9304,
    "▁adapt": 9305,
    "▁sea": 9306,
    "▁diagn": 9307,
    "▁fol": 9308,
    "为人": 9309,
    "▁Professor": 9310,
    "▁Boy": 9311,
    "olit": 9312,
    "▁ing": 9313,
    "专科": 9314,
    "金属": 9315,
    "TC": 9316,
    "害怕": 9317,
    "善良": 9318,
    "▁reli": 9319,
    "灵魂": 9320,
    "附属": 9321,
    "责编": 9322,
    "▁advent": 9323,
    "党中央": 9324,
    "▁episode": 9325,
    "how": 9326,
    "▁element": 9327,
    "途径": 9328,
    "维修": 9329,
    "▁Prot": 9330,
    "工作者": 9331,
    "▁config": 9332,
    "▁Blue": 9333,
    "▁covered": 9334,
    "▁introduced": 9335,
    "是非常": 9336,
    "哈尔": 9337,
    "家庄": 9338,
    "liament": 9339,
    "▁landsc": 9340,
    "用品": 9341,
    "ears": 9342,
    "▁religious": 9343,
    "这场": 9344,
    "▁influence": 9345,
    "pload": 9346,
    "▁ship": 9347,
    "测量": 9348,
    "规定的": 9349,
    "著名": 9350,
    "ga": 9351,
    "人社": 9352,
    "sub": 9353,
    "发言": 9354,
    "据了解": 9355,
    "ione": 9356,
    "ribute": 9357,
    "中国人民": 9358,
    "▁Games": 9359,
    "▁revealed": 9360,
    "有效的": 9361,
    "诉讼": 9362,
    "▁Author": 9363,
    "▁predict": 9364,
    "ograp": 9365,
    "积分": 9366,
    "残疾": 9367,
    "疫情期间": 9368,
    "▁housing": 9369,
    "五年": 9370,
    "▁spending": 9371,
    "▁Cy": 9372,
    "ws": 9373,
    "▁crime": 9374,
    "▁д": 9375,
    "购房": 9376,
    "障碍": 9377,
    "▁protected": 9378,
    "远离": 9379,
    "▁coast": 9380,
    "▁spl": 9381,
    "urban": 9382,
    "▁baby": 9383,
    "▁bottom": 9384,
    "ón": 9385,
    "对接": 9386,
    "的设计": 9387,
    "情形": 9388,
    "二级": 9389,
    "');": 9390,
    "ye": 9391,
    "无限": 9392,
    "清华": 9393,
    "rehens": 9394,
    "▁unc": 9395,
    "▁wed": 9396,
    "哪个": 9397,
    "▁welcome": 9398,
    "同一": 9399,
    "的中": 9400,
    "有机": 9401,
    "ль": 9402,
    "计算机": 9403,
    "一流": 9404,
    "家属": 9405,
    "▁Real": 9406,
    "▁spring": 9407,
    "向上": 9408,
    "▁instance": 9409,
    "ishes": 9410,
    "▁stress": 9411,
    "讲述": 9412,
    "重复": 9413,
    "inding": 9414,
    "▁Whe": 9415,
    "▁prefer": 9416,
    "从小": 9417,
    "电动车": 9418,
    "▁Administ": 9419,
    "导师": 9420,
    "减肥": 9421,
    "接近": 9422,
    "▁flow": 9423,
    "询问": 9424,
    "▁advanced": 9425,
    "无需": 9426,
    "分泌": 9427,
    "lines": 9428,
    "方面的": 9429,
    "▁)": 9430,
    "▁issued": 9431,
    "▁Mike": 9432,
    "▁prepar": 9433,
    "cho": 9434,
    "▁justice": 9435,
    "▁slight": 9436,
    "usion": 9437,
    "结束后": 9438,
    "模拟": 9439,
    "他在": 9440,
    "▁Young": 9441,
    "iency": 9442,
    "eler": 9443,
    "▁identify": 9444,
    "▁Gal": 9445,
    "▁Penn": 9446,
    "新城": 9447,
    "我要": 9448,
    "▁evening": 9449,
    "▁Haw": 9450,
    "▁buildings": 9451,
    "▁Hen": 9452,
    "▁pictures": 9453,
    "та": 9454,
    "▁exciting": 9455,
    "▁heat": 9456,
    "▁Middle": 9457,
    "细菌": 9458,
    "\"\"": 9459,
    "的老": 9460,
    "大数据": 9461,
    "owl": 9462,
    "▁Beach": 9463,
    "心灵": 9464,
    "法国": 9465,
    "▁generally": 9466,
    "纤维": 9467,
    "粮食": 9468,
    "▁corporate": 9469,
    "通讯": 9470,
    "中有": 9471,
    "ри": 9472,
    "aks": 9473,
    "买房": 9474,
    "起到": 9475,
    "▁Jones": 9476,
    "春季": 9477,
    "▁Any": 9478,
    "▁coverage": 9479,
    "充足": 9480,
    "west": 9481,
    "信任": 9482,
    "▁properties": 9483,
    "争取": 9484,
    "摩托": 9485,
    "▁Men": 9486,
    "记住": 9487,
    "▁pool": 9488,
    "▁rat": 9489,
    "NE": 9490,
    "▁onto": 9491,
    "过于": 9492,
    "▁happens": 9493,
    "FC": 9494,
    "doc": 9495,
    "First": 9496,
    "▁wouldn": 9497,
    "po": 9498,
    "分配": 9499,
    "▁technologies": 9500,
    "定制": 9501,
    "iture": 9502,
    "▁weap": 9503,
    "TH": 9504,
    "FA": 9505,
    "▁separate": 9506,
    "▁View": 9507,
    "从业": 9508,
    "适用": 9509,
    "Par": 9510,
    "▁nut": 9511,
    "食材": 9512,
    "男孩": 9513,
    "May": 9514,
    "▁importance": 9515,
    "▁communication": 9516,
    "long": 9517,
    "▁therefore": 9518,
    "定点": 9519,
    "▁Online": 9520,
    "对其": 9521,
    "▁earth": 9522,
    "▁haven": 9523,
    "现代化": 9524,
    "发动机": 9525,
    "公平": 9526,
    "认知": 9527,
    "模型": 9528,
    "▁freedom": 9529,
    "百万": 9530,
    "▁Ep": 9531,
    "这份": 9532,
    "巩固": 9533,
    "▁classes": 9534,
    "延长": 9535,
    "▁Ver": 9536,
    "▁starts": 9537,
    "人间": 9538,
    "iiiiiiii": 9539,
    "天地": 9540,
    "▁emergency": 9541,
    "▁recorded": 9542,
    "▁explain": 9543,
    "▁err": 9544,
    "指示": 9545,
    "PM": 9546,
    "▁watching": 9547,
    "温馨提示": 9548,
    "▁valid": 9549,
    "冠军": 9550,
    "▁situ": 9551,
    "凌晨": 9552,
    "(　)": 9553,
    "▁joint": 9554,
    "难题": 9555,
    "acement": 9556,
    "出于": 9557,
    "▁Jeff": 9558,
    "糖尿病": 9559,
    "▁alle": 9560,
    "▁supporting": 9561,
    "ulations": 9562,
    "一大": 9563,
    "door": 9564,
    "我们在": 9565,
    "▁performed": 9566,
    "▁Chair": 9567,
    "▁column": 9568,
    "▁Williams": 9569,
    "param": 9570,
    "inst": 9571,
    "显著": 9572,
    "巨大": 9573,
    "档案": 9574,
    "▁incor": 9575,
    "新型冠状病毒感染的肺炎": 9576,
    "odies": 9577,
    "▁hy": 9578,
    "▁selection": 9579,
    "白天": 9580,
    "▁Federal": 9581,
    "教师资格": 9582,
    "itz": 9583,
    "arks": 9584,
    "得到了": 9585,
    "poration": 9586,
    "iner": 9587,
    "▁craft": 9588,
    "那就是": 9589,
    "关闭": 9590,
    "一套": 9591,
    "大连": 9592,
    "bi": 9593,
    "代理": 9594,
    "ла": 9595,
    "News": 9596,
    "▁impress": 9597,
    "子里": 9598,
    "▁hearing": 9599,
    "▁married": 9600,
    "顾问": 9601,
    "性质": 9602,
    "短信": 9603,
    "个性": 9604,
    "▁Aud": 9605,
    "▁command": 9606,
    "▁Microsoft": 9607,
    "▁ign": 9608,
    "▁cold": 9609,
    "地上": 9610,
    "原料": 9611,
    "verse": 9612,
    "国民": 9613,
    "run": 9614,
    "▁lived": 9615,
    "而在": 9616,
    "▁shut": 9617,
    "▁flex": 9618,
    "我省": 9619,
    "生意": 9620,
    "有一种": 9621,
    "县城": 9622,
    "成效": 9623,
    "▁Tri": 9624,
    "▁labor": 9625,
    "都很": 9626,
    "入境": 9627,
    "▁ec": 9628,
    "ker": 9629,
    "简单的": 9630,
    "▁occup": 9631,
    "不超过": 9632,
    "描述": 9633,
    "树立": 9634,
    "wen": 9635,
    "随意": 9636,
    "颜值": 9637,
    "▁adjust": 9638,
    "理工": 9639,
    "日的": 9640,
    "▁raise": 9641,
    "长大": 9642,
    "arts": 9643,
    "适量": 9644,
    "▁Executive": 9645,
    "将于": 9646,
    "jj": 9647,
    "科普": 9648,
    "▁Dev": 9649,
    "市区": 9650,
    "Just": 9651,
    "▁Wild": 9652,
    "一只": 9653,
    "的效果": 9654,
    "验证": 9655,
    "低头": 9656,
    "▁Lab": 9657,
    "▁univers": 9658,
    "ersey": 9659,
    "eech": 9660,
    "创意": 9661,
    "rant": 9662,
    "▁efficient": 9663,
    "宿舍": 9664,
    "▁bath": 9665,
    "名额": 9666,
    "斗争": 9667,
    "▁_": 9668,
    "爆料": 9669,
    "iana": 9670,
    "iced": 9671,
    "在外": 9672,
    "▁calling": 9673,
    "▁Live": 9674,
    "▁plants": 9675,
    "不久": 9676,
    "▁cells": 9677,
    "Every": 9678,
    "融入": 9679,
    "师范大学": 9680,
    "激发": 9681,
    "▁determine": 9682,
    "妇女": 9683,
    "eria": 9684,
    "前期": 9685,
    "istance": 9686,
    "▁clearly": 9687,
    "救治": 9688,
    "医护人员": 9689,
    "Previous": 9690,
    "▁officers": 9691,
    "▁whom": 9692,
    "▁hero": 9693,
    "▁Lim": 9694,
    "签约": 9695,
    "星座": 9696,
    "▁Wal": 9697,
    "Photo": 9698,
    "free": 9699,
    "▁util": 9700,
    "▁Photo": 9701,
    "▁Sup": 9702,
    "前进": 9703,
    "▁Cast": 9704,
    "总会": 9705,
    "▁depend": 9706,
    "▁stars": 9707,
    "工商": 9708,
    "▁videos": 9709,
    "▁sets": 9710,
    "民间": 9711,
    "prise": 9712,
    "km": 9713,
    "▁sequ": 9714,
    "▁dig": 9715,
    "清洗": 9716,
    "ansion": 9717,
    "▁critic": 9718,
    "激励": 9719,
    "Reg": 9720,
    "▁Squ": 9721,
    "function": 9722,
    "相关部门": 9723,
    "Ref": 9724,
    "互相": 9725,
    "常委会": 9726,
    "▁historical": 9727,
    "Value": 9728,
    "ju": 9729,
    "主播": 9730,
    "▁Although": 9731,
    "事实上": 9732,
    "▁forced": 9733,
    "anish": 9734,
    "充电": 9735,
    "政务": 9736,
    "感受到": 9737,
    "▁restaurant": 9738,
    "平常": 9739,
    "耐心": 9740,
    "▁shares": 9741,
    "wan": 9742,
    "ancer": 9743,
    "医务": 9744,
    "▁Like": 9745,
    "▁remove": 9746,
    "笔记": 9747,
    "▁Each": 9748,
    "▁useful": 9749,
    "File": 9750,
    "▁mostly": 9751,
    "▁keeping": 9752,
    "共计": 9753,
    "▁Jon": 9754,
    "我校": 9755,
    "的第一": 9756,
    "那就": 9757,
    "▁Stand": 9758,
    "▁tend": 9759,
    "▁Dou": 9760,
    "交通安全": 9761,
    "▁Japanese": 9762,
    "姑娘": 9763,
    "▁missing": 9764,
    "▁listed": 9765,
    "▁professionals": 9766,
    "▁Children": 9767,
    "▁motor": 9768,
    "▁phil": 9769,
    "精致": 9770,
    "Pe": 9771,
    "转让": 9772,
    "▁veter": 9773,
    "BI": 9774,
    "▁bringing": 9775,
    "南方": 9776,
    "▁balance": 9777,
    "暑假": 9778,
    "应届": 9779,
    "证券": 9780,
    "▁Trust": 9781,
    "onds": 9782,
    "警惕": 9783,
    "php": 9784,
    "▁politics": 9785,
    "全新": 9786,
    "话题": 9787,
    "link": 9788,
    "▁hab": 9789,
    "人人": 9790,
    "▁fellow": 9791,
    "小孩": 9792,
    "停电": 9793,
    "本平台": 9794,
    "▁secret": 9795,
    "▁Medicine": 9796,
    "▁construct": 9797,
    "▁Fe": 9798,
    "▁item": 9799,
    "▁inspired": 9800,
    "▁discover": 9801,
    "敏感": 9802,
    "两次": 9803,
    "▁behavior": 9804,
    "严重的": 9805,
    "部的": 9806,
    "▁Pan": 9807,
    "总统": 9808,
    "Text": 9809,
    "酒精": 9810,
    "Art": 9811,
    "content": 9812,
    "查处": 9813,
    "▁Sar": 9814,
    "则是": 9815,
    "▁Polit": 9816,
    "▁serving": 9817,
    "▁eat": 9818,
    "script": 9819,
    "相关的": 9820,
    "未来的": 9821,
    "▁icon": 9822,
    "ulated": 9823,
    "▁Ro": 9824,
    "杂志": 9825,
    "危机": 9826,
    "▁prepared": 9827,
    "▁criminal": 9828,
    "▁boost": 9829,
    "hent": 9830,
    "▁instruct": 9831,
    "▁cere": 9832,
    "什么是": 9833,
    "▁worldwide": 9834,
    "监委": 9835,
    "赔偿": 9836,
    "▁updated": 9837,
    "▁Conference": 9838,
    "癌症": 9839,
    "党史学习教育": 9840,
    "▁Die": 9841,
    "▁units": 9842,
    "爱国": 9843,
    "后期": 9844,
    "akistan": 9845,
    "损伤": 9846,
    "ixt": 9847,
    "发行": 9848,
    "▁concert": 9849,
    "古代": 9850,
    "▁listen": 9851,
    "▁teacher": 9852,
    "喜欢的": 9853,
    "你可以": 9854,
    "▁fif": 9855,
    "▁Card": 9856,
    "家族": 9857,
    "▁Francisco": 9858,
    "萝卜": 9859,
    "▁ice": 9860,
    "']": 9861,
    "▁responsibility": 9862,
    "▁Prov": 9863,
    "EST": 9864,
    "班级": 9865,
    "▁teachers": 9866,
    "麻烦": 9867,
    "▁dynam": 9868,
    "astern": 9869,
    "法定": 9870,
    "▁Bob": 9871,
    "▁regional": 9872,
    "▁spons": 9873,
    "ployment": 9874,
    "▁Charl": 9875,
    "等你": 9876,
    "▁winter": 9877,
    "▁lots": 9878,
    "▁somew": 9879,
    "yles": 9880,
    "▁metal": 9881,
    "nam": 9882,
    "▁Ref": 9883,
    "党组织": 9884,
    "小白": 9885,
    "最多": 9886,
    "related": 9887,
    "BO": 9888,
    "▁investors": 9889,
    "ulate": 9890,
    "gment": 9891,
    "▁по": 9892,
    "病情": 9893,
    "新建": 9894,
    "暴雨": 9895,
    "▁arrang": 9896,
    "icious": 9897,
    "将其": 9898,
    "▁shape": 9899,
    "iano": 9900,
    "批评": 9901,
    "▁dry": 9902,
    "小说": 9903,
    "▁stated": 9904,
    "Key": 9905,
    "不懂": 9906,
    "限时": 9907,
    "▁otherwise": 9908,
    "aylor": 9909,
    "的外": 9910,
    "Ass": 9911,
    "▁reviews": 9912,
    "不忘": 9913,
    "Please": 9914,
    "▁institutions": 9915,
    "▁ment": 9916,
    "强制": 9917,
    "疯狂": 9918,
    "▁vac": 9919,
    "▁highlight": 9920,
    "电力": 9921,
    "面上": 9922,
    "江苏省": 9923,
    "股份有限公司": 9924,
    "各大": 9925,
    "一口": 9926,
    "▁authorities": 9927,
    "全日": 9928,
    "ERS": 9929,
    "▁guys": 9930,
    "民主": 9931,
    "招商": 9932,
    "AI": 9933,
    "吃的": 9934,
    "ffect": 9935,
    "▁studio": 9936,
    "高峰": 9937,
    "免责声明": 9938,
    "▁smaller": 9939,
    "▁Boston": 9940,
    "▁Studies": 9941,
    "▁relationships": 9942,
    "▁consid": 9943,
    "这类": 9944,
    "录用": 9945,
    "ais": 9946,
    "▁approximately": 9947,
    "lig": 9948,
    "fe": 9949,
    "▁Andrew": 9950,
    "power": 9951,
    "onom": 9952,
    "▁kitchen": 9953,
    "纠纷": 9954,
    "前后": 9955,
    "▁pod": 9956,
    "▁allowing": 9957,
    "▁Exper": 9958,
    "严禁": 9959,
    "发育": 9960,
    "利率": 9961,
    "▁format": 9962,
    "▁agreed": 9963,
    "▁fra": 9964,
    "苏州": 9965,
    "真题": 9966,
    "▁Niger": 9967,
    "▁panel": 9968,
    "接着": 9969,
    "uthors": 9970,
    "▁feels": 9971,
    "加班": 9972,
    "销量": 9973,
    "});": 9974,
    "▁waiting": 9975,
    "抑制": 9976,
    "▁Call": 9977,
    "▁Scot": 9978,
    "··": 9979,
    "▁server": 9980,
    "EE": 9981,
    "rite": 9982,
    "厨房": 9983,
    "汇报": 9984,
    "也可": 9985,
    "影视": 9986,
    "▁dance": 9987,
    "▁island": 9988,
    "Test": 9989,
    "rier": 9990,
    "▁input": 9991,
    "ingly": 9992,
    "走了": 9993,
    "LA": 9994,
    "▁connected": 9995,
    "State": 9996,
    "不易": 9997,
    "▁package": 9998,
    "老师的": 9999,
    "不但": 10000,
    "▁fab": 10001,
    "▁button": 10002,
    "ansas": 10003,
    "有的人": 10004,
    "utely": 10005,
    "asketball": 10006,
    "▁decade": 10007,
    "▁alternative": 10008,
    "干货": 10009,
    "▁consumers": 10010,
    "体会": 10011,
    "▁Army": 10012,
    "eller": 10013,
    "高温": 10014,
    "旅客": 10015,
    "▁Hor": 10016,
    "毫无": 10017,
    "股票": 10018,
    "做事": 10019,
    "▁burn": 10020,
    "联系人": 10021,
    "▁furn": 10022,
    "ivered": 10023,
    "▁solar": 10024,
    "▁Use": 10025,
    "▁lit": 10026,
    "▁Adv": 10027,
    "▁holiday": 10028,
    "主办": 10029,
    "▁revenue": 10030,
    "幸运": 10031,
    "国外": 10032,
    "的价格": 10033,
    "asks": 10034,
    "新能源": 10035,
    "检察院": 10036,
    "CS": 10037,
    "▁innovative": 10038,
    "河北省": 10039,
    "配备": 10040,
    "zil": 10041,
    "对话": 10042,
    "竞赛": 10043,
    "▁approved": 10044,
    "stra": 10045,
    "▁charges": 10046,
    "Set": 10047,
    "icial": 10048,
    "dis": 10049,
    "▁speech": 10050,
    "TR": 10051,
    "好处": 10052,
    "▁Writ": 10053,
    "▁plenty": 10054,
    "真的是": 10055,
    "留学": 10056,
    "中国特色": 10057,
    "发生了": 10058,
    "十一": 10059,
    "See": 10060,
    "▁magn": 10061,
    "real": 10062,
    "EX": 10063,
    "也不是": 10064,
    "▁tro": 10065,
    "ре": 10066,
    "帮扶": 10067,
    "▁interests": 10068,
    "▁identity": 10069,
    "▁Jun": 10070,
    "正确的": 10071,
    "秘密": 10072,
    "amm": 10073,
    "iration": 10074,
    "elly": 10075,
    "节奏": 10076,
    "实事": 10077,
    "返回": 10078,
    "▁sounds": 10079,
    "年初": 10080,
    "elines": 10081,
    "▁locations": 10082,
    "▁theme": 10083,
    "▁©": 10084,
    "stein": 10085,
    "Us": 10086,
    "进度": 10087,
    "▁на": 10088,
    "感冒": 10089,
    "开了": 10090,
    "遗憾": 10091,
    "▁schedule": 10092,
    "一定会": 10093,
    "▁jump": 10094,
    "▁mentioned": 10095,
    "招聘岗位": 10096,
    "阅读原文": 10097,
    "Exception": 10098,
    "冬季": 10099,
    "▁vent": 10100,
    "舞蹈": 10101,
    "已有": 10102,
    "which": 10103,
    "▁ton": 10104,
    "▁notes": 10105,
    "▁compar": 10106,
    "所需": 10107,
    "其次": 10108,
    "▁pair": 10109,
    "▁rapid": 10110,
    "▁hundreds": 10111,
    "交通运输": 10112,
    "▁ID": 10113,
    "回归": 10114,
    "▁coord": 10115,
    "美女": 10116,
    "装饰": 10117,
    "▁renew": 10118,
    "不错的": 10119,
    "生存": 10120,
    "中药": 10121,
    "▁flight": 10122,
    "健康码": 10123,
    "捐赠": 10124,
    "etime": 10125,
    "▁proceed": 10126,
    "▁illust": 10127,
    "订单": 10128,
    "pret": 10129,
    "post": 10130,
    "本期": 10131,
    "点的": 10132,
    "▁Charles": 10133,
    "户口": 10134,
    "诗词": 10135,
    "答题": 10136,
    "大脑": 10137,
    "cks": 10138,
    "全日制": 10139,
    "ati": 10140,
    "▁commission": 10141,
    "▁tree": 10142,
    "牢记": 10143,
    "▁confirmed": 10144,
    "那里": 10145,
    "庆祝": 10146,
    "证件": 10147,
    "▁thus": 10148,
    "▁Environment": 10149,
    "犯罪嫌疑人": 10150,
    "▁detect": 10151,
    "irms": 10152,
    "▁dial": 10153,
    "受伤": 10154,
    "必备": 10155,
    "清单": 10156,
    "▁breat": 10157,
    "▁Prem": 10158,
    "门店": 10159,
    "▁doctor": 10160,
    "▁surg": 10161,
    "▁bird": 10162,
    "拿到": 10163,
    "▁output": 10164,
    "风水": 10165,
    "翻译": 10166,
    "之所以": 10167,
    "▁flu": 10168,
    "太原": 10169,
    "▁museum": 10170,
    "rical": 10171,
    "▁leads": 10172,
    "bb": 10173,
    "大大": 10174,
    "forcement": 10175,
    "健全": 10176,
    "okes": 10177,
    "▁guy": 10178,
    "ownt": 10179,
    "▁promote": 10180,
    "▁Ken": 10181,
    "/**": 10182,
    "▁holds": 10183,
    "eries": 10184,
    "▁CD": 10185,
    "oles": 10186,
    "”;": 10187,
    "等方式": 10188,
    "当下": 10189,
    "American": 10190,
    "动员": 10191,
    "户外": 10192,
    "gs": 10193,
    "stream": 10194,
    "夏季": 10195,
    "▁discussion": 10196,
    "窗口": 10197,
    "督导": 10198,
    "rees": 10199,
    "▁kid": 10200,
    "时不": 10201,
    "期限": 10202,
    "phas": 10203,
    "是我们": 10204,
    "菩萨": 10205,
    "▁Michigan": 10206,
    "▁depart": 10207,
    "看完": 10208,
    "essions": 10209,
    "igen": 10210,
    "CP": 10211,
    "▁script": 10212,
    "　|": 10213,
    "西部": 10214,
    "▁advis": 10215,
    "是我": 10216,
    "▁Phot": 10217,
    "▁affected": 10218,
    "▁apart": 10219,
    "后面": 10220,
    "▁Columb": 10221,
    "江南": 10222,
    "▁handle": 10223,
    "▁Person": 10224,
    "住院": 10225,
    "题目": 10226,
    "日晚": 10227,
    "▁Digital": 10228,
    "▁fish": 10229,
    "董事长": 10230,
    "▁Gra": 10231,
    "ки": 10232,
    "▁Id": 10233,
    "▁clinical": 10234,
    "▁reference": 10235,
    "▁innovation": 10236,
    "腾讯": 10237,
    "Book": 10238,
    "▁kick": 10239,
    "第七": 10240,
    "三十": 10241,
    "▁ven": 10242,
    "▁featured": 10243,
    "size": 10244,
    "一直在": 10245,
    "ador": 10246,
    "▁Secretary": 10247,
    "舞台": 10248,
    "发的": 10249,
    "▁negot": 10250,
    "▁industrial": 10251,
    "阴性": 10252,
    "HR": 10253,
    "ensions": 10254,
    "这条": 10255,
    "真相": 10256,
    "▁Ma": 10257,
    "▁distance": 10258,
    "ghan": 10259,
    "被告人": 10260,
    "不及": 10261,
    "优雅": 10262,
    "▁seeking": 10263,
    "合集": 10264,
    "▁Italy": 10265,
    "▁processes": 10266,
    "▁exchange": 10267,
    "专属": 10268,
    "实地": 10269,
    "dated": 10270,
    "redit": 10271,
    "▁wear": 10272,
    "用了": 10273,
    "▁optim": 10274,
    "游泳": 10275,
    "中国人": 10276,
    "rum": 10277,
    "有哪些": 10278,
    "亲子": 10279,
    "▁campus": 10280,
    "扩散": 10281,
    "的女人": 10282,
    "区的": 10283,
    "▁AND": 10284,
    "神秘": 10285,
    "英文": 10286,
    "have": 10287,
    "▁massive": 10288,
    "常态化": 10289,
    "▁AL": 10290,
    "你就": 10291,
    "传媒": 10292,
    "▁committee": 10293,
    "utor": 10294,
    "▁Season": 10295,
    "▁victory": 10296,
    "▁Ari": 10297,
    "▁explained": 10298,
    "▁Night": 10299,
    "▁greatest": 10300,
    "值班": 10301,
    "▁payment": 10302,
    "ura": 10303,
    "有钱": 10304,
    "放假": 10305,
    "▁opinion": 10306,
    "批次": 10307,
    "致力": 10308,
    "名为": 10309,
    "考场": 10310,
    "▁edition": 10311,
    "家园": 10312,
    "县公安局": 10313,
    "亿美元": 10314,
    "raine": 10315,
    "oted": 10316,
    "减轻": 10317,
    "精力": 10318,
    "▁bul": 10319,
    "dy": 10320,
    "▁Donald": 10321,
    "▁Market": 10322,
    "▁Product": 10323,
    "门槛": 10324,
    "不太": 10325,
    "▁lose": 10326,
    "▁witness": 10327,
    "enced": 10328,
    "和你": 10329,
    "成年人": 10330,
    "大量的": 10331,
    "page": 10332,
    "▁accident": 10333,
    "▁tele": 10334,
    "▁indic": 10335,
    "▁village": 10336,
    "文艺": 10337,
    "tenance": 10338,
    "Object": 10339,
    "ja": 10340,
    "▁Jackson": 10341,
    "ounsel": 10342,
    "▁san": 10343,
    "▁protest": 10344,
    "这时": 10345,
    "出现在": 10346,
    "ping": 10347,
    "▁Ell": 10348,
    "▁putting": 10349,
    "DS": 10350,
    "▁Space": 10351,
    "机遇": 10352,
    "▁Dom": 10353,
    "▁flo": 10354,
    "两个人": 10355,
    "';": 10356,
    "本土": 10357,
    "用心": 10358,
    "储备": 10359,
    "服装": 10360,
    "百分": 10361,
    "四大": 10362,
    "▁Van": 10363,
    "coh": 10364,
    "▁Bas": 10365,
    "outs": 10366,
    "▁library": 10367,
    "El": 10368,
    "osoph": 10369,
    "hr": 10370,
    "男生": 10371,
    "▁scientific": 10372,
    "佩戴": 10373,
    "▁distribution": 10374,
    "▁Coll": 10375,
    "少数": 10376,
    "▁Theatre": 10377,
    "的精神": 10378,
    "有力": 10379,
    "zx": 10380,
    "夜间": 10381,
    "几十": 10382,
    "▁cloud": 10383,
    "视为": 10384,
    "观念": 10385,
    "带你": 10386,
    "▁pil": 10387,
    "fs": 10388,
    "athan": 10389,
    "Inter": 10390,
    "协同": 10391,
    "名师": 10392,
    "长按二维码": 10393,
    "养老金": 10394,
    "▁Watch": 10395,
    "▁fields": 10396,
    "▁diverse": 10397,
    "▁tests": 10398,
    "////": 10399,
    "自行车": 10400,
    "货币": 10401,
    "▁collaboration": 10402,
    "要有": 10403,
    "疑问": 10404,
    "行程": 10405,
    "水的": 10406,
    "建筑面积": 10407,
    "Out": 10408,
    "资质": 10409,
    "作风": 10410,
    "年前": 10411,
    "助于": 10412,
    "轨道": 10413,
    "按摩": 10414,
    "▁identified": 10415,
    "▁Lord": 10416,
    "的关键": 10417,
    "三是": 10418,
    "整合": 10419,
    "▁bra": 10420,
    "▁Master": 10421,
    "▁Support": 10422,
    "▁Championship": 10423,
    "▁domestic": 10424,
    "▁tells": 10425,
    "热门": 10426,
    "▁Force": 10427,
    "优秀的": 10428,
    "▁assistance": 10429,
    "中秋": 10430,
    "▁agencies": 10431,
    "Em": 10432,
    "▁Max": 10433,
    "Since": 10434,
    "均匀": 10435,
    "党员干部": 10436,
    "▁rain": 10437,
    "▁engineering": 10438,
    "Gu": 10439,
    "年纪": 10440,
    "▁Because": 10441,
    "讲座": 10442,
    "rehensive": 10443,
    "卫健委": 10444,
    "▁gather": 10445,
    "▁circum": 10446,
    "法律法规": 10447,
    "▁beauty": 10448,
    "滑动": 10449,
    "uable": 10450,
    "atus": 10451,
    "更为": 10452,
    "▁remov": 10453,
    "收购": 10454,
    "身心": 10455,
    "融媒体中心": 10456,
    "▁discovered": 10457,
    "监制": 10458,
    "kes": 10459,
    "那样": 10460,
    "ilit": 10461,
    "▁Thanks": 10462,
    "▁fill": 10463,
    "早已": 10464,
    "▁Instagram": 10465,
    "冬天": 10466,
    "Jan": 10467,
    "title": 10468,
    "奶奶": 10469,
    "▁index": 10470,
    "▁cookies": 10471,
    "Mr": 10472,
    "▁coffee": 10473,
    "解答": 10474,
    "这个时候": 10475,
    "uzz": 10476,
    "ride": 10477,
    "▁earned": 10478,
    "▁winner": 10479,
    "▁reform": 10480,
    "water": 10481,
    "仅仅": 10482,
    "但在": 10483,
    "市场监管": 10484,
    "武器": 10485,
    "参观": 10486,
    "壁纸": 10487,
    "▁combined": 10488,
    "开车": 10489,
    "jo": 10490,
    "▁familiar": 10491,
    "▁photograph": 10492,
    "▁Connect": 10493,
    "▁corner": 10494,
    "▁square": 10495,
    "乘客": 10496,
    "▁Zeal": 10497,
    "的相关": 10498,
    "办学": 10499,
    "血糖": 10500,
    "▁seemed": 10501,
    "一日": 10502,
    "▁ideal": 10503,
    "she": 10504,
    "▁returns": 10505,
    "Gl": 10506,
    "高血压": 10507,
    "的关系": 10508,
    "icit": 10509,
    "一看": 10510,
    "▁bound": 10511,
    "otic": 10512,
    "▁delivered": 10513,
    "精华": 10514,
    "专用": 10515,
    "图片来源": 10516,
    "pass": 10517,
    "▁grew": 10518,
    "目录": 10519,
    "的一些": 10520,
    "alle": 10521,
    "风雨": 10522,
    "▁category": 10523,
    "merce": 10524,
    "总局": 10525,
    "全民": 10526,
    "定了": 10527,
    "弘扬": 10528,
    "▁Coast": 10529,
    "看出": 10530,
    "▁carbon": 10531,
    "▁Tem": 10532,
    "试卷": 10533,
    "委托": 10534,
    "▁alleged": 10535,
    "▁adults": 10536,
    "参赛": 10537,
    "▁Walk": 10538,
    "初步": 10539,
    "浪漫": 10540,
    "▁attacks": 10541,
    "▁willing": 10542,
    "▁shooting": 10543,
    "基本上": 10544,
[...]
